/**
  ******************************************************************************
  * @file    network_1_data_params.c
  * @author  AST Embedded Analytics Research Platform
  * @date    Wed Jul 31 22:00:03 2024
  * @brief   AI Tool Automatic Code Generator for Embedded NN computing
  ******************************************************************************
  * Copyright (c) 2024 STMicroelectronics.
  * All rights reserved.
  *
  * This software is licensed under terms that can be found in the LICENSE file
  * in the root directory of this software component.
  * If no LICENSE file comes with this software, it is provided AS-IS.
  ******************************************************************************
  */

#include "network_1_data_params.h"


/**  Activations Section  ****************************************************/
ai_handle g_network_1_activations_table[1 + 2] = {
  AI_HANDLE_PTR(AI_MAGIC_MARKER),
  AI_HANDLE_PTR(NULL),
  AI_HANDLE_PTR(AI_MAGIC_MARKER),
};




/**  Weights Section  ********************************************************/
AI_ALIGNED(32)
const ai_u64 s_network_1_weights_array_u64[127392] = {
  0xf82627e7d3d1f7e3U, 0x190534f00da7bbfaU, 0xe29fc321f05e821U, 0xfdefd0fe09da1311U,
  0x14e21416fcff2d0fU, 0x8e3eff100f5afe0U, 0xfb10fd263dddb1dcU, 0xf40ed7f938faf0efU,
  0xe2d9e80b061a16f5U, 0xbbf7135101eeff18U, 0x6e32632fdccd0efU, 0xf63ff0310e3515d4U,
  0xd4aae4ebe925fbfbU, 0xd118f3f502c2fe0cU, 0x1d5f801df22e529U, 0x1639e712b5d8f915U,
  0xe11709dee9d4090aU, 0xc51221e814195123U, 0x2beafbf1f4d0ece4U, 0xeec2c9fb06fa08caU,
  0x1ee6fd15df2d0921U, 0x252613ef16a918feU, 0xc7f2dfccf709e308U, 0xcc09371ccce50bf1U,
  0xcc0de2f9b713161cU, 0x5dc9eae2e9f5d6f0U, 0xeecf032bf9e1fffdU, 0xf5ecd80c1227cacfU,
  0x27fef6fcf6342932U, 0x8d007e7120e020eU, 0x2f00e2f50609ef3bU, 0x1334f331e2bb0c3cU,
  0x5240bd5f711eb2cU, 0xf4f306e8e3f4e40dU, 0xe606f1e2f5c7eb1fU, 0xfb0549dce942d5d0U,
  0xf0fde3dcfdf1fbedU, 0x16fee0cbdd021821U, 0xf9c6df1e0a1ef1daU, 0xb50f529e448b611U,
  0xfd19ff04fc3f16c9U, 0x480bfff1ed1e2019U, 0xf2f0d439240b2d01U, 0xcdc06094c0c08f9U,
  0xe2e1101ce0f3fb15U, 0xedef1c28fed2ee05U, 0xee2c04f7000009e2U, 0x5c616f9a6f0b5eeU,
  0xfbe14e362905f8d5U, 0xe9eee2f10e055a30U, 0xf9b2ebe4fe02e745U, 0xf25fee6f72b6cf0U,
  0xad11df22e0ed8d1U, 0xd5e72581f70ce51fU, 0xc343c1af7dffdf9U, 0xec0911ebf7fcc95bU,
  0x13f9fbef0c18cc46U, 0xf0e21b1eecce2128U, 0x719dcf4e8e6c30aU, 0xe013281de90d0a0dU,
  0x10e11ee6e5d8ef15U, 0xb23430fe94a1042U, 0xbc13c223dd0b12ecU, 0x24ffd7304edd29e9U,
  0xfaecce0c0d2e09c4U, 0xbdec10c509de06ebU, 0xedfde9ea00f7d92eU, 0x225cb13f3fef3ebU,
  0x1703e2d34933f504U, 0x1938ef12e3bce822U, 0xb70c0006fafd09ceU, 0x30f7020218d2bbcdU,
  0x25ee0ddde1baac33U, 0xb5fc2ef3fd1eeeb6U, 0xd408f71029c210f6U, 0x2703fa06fb04af0bU,
  0x5e03c90f3ffaf403U, 0x1ede06b3001f3422U, 0xeb0edf3315ddd41dU, 0xf23009f12decf3ddU,
  0x1df80f2e1314dc20U, 0xfe1617441f55eff1U, 0xcd0cfde5073602faU, 0x39d5d50414f50eeeU,
  0x4620efe9e1c1d0a8U, 0xf3fcdbbe1c53f603U, 0xef10f80ed6e6e8e8U, 0xd029d7fc14e9fde8U,
  0x4105e7fff10ac912U, 0x3df3020023e9fcf1U, 0xf7d453f7121dc715U, 0xdef62ffb124a1320U,
  0xb9d5fdc60e07f4dcU, 0xf1412e24d4f2f5c4U, 0xe8f8ee18dee9154eU, 0x2612e013040052f6U,
  0x6fa012524ae00e0U, 0xe4ef0bf6063ed125U, 0xe12f1331e326deecU, 0xf813f601e9f1d717U,
  0xc5fde71730c93fe5U, 0x12e7ffcde3fd4e3cU, 0xde03fd0af8d1e821U, 0x32037f203bf5b202U,
  0xcf03b80deeec2527U, 0x1d8d9a0b4b619f3U, 0xf2ffdf1d3a001b20U, 0xf4c31b043de630f9U,
  0xeedde7f50321ddccU, 0xd130ef421ab2706U, 0xbd03fbde1a02e6cfU, 0x5dd0000bde503bc1U,
  0x15311c03eed2d3fbU, 0xd719024af8ee06fbU, 0xe212ec210f1a2900U, 0xd190f0ef8c5ebd7U,
  0x24070d3806e2d33cU, 0x35f902ead53bf532U, 0x13f84beb2507fdc7U, 0xfee4400bf7511a37U,
  0xef05eade17d2e9fdU, 0xf120e6143424f216U, 0xf4053ed50abeebe5U, 0xe8f201ecea061afaU,
  0xb702c50bfb050ceaU, 0x2034dbc309211f03U, 0xed0aea294d071a4cU, 0x160808e1dc0e0e1dU,
  0xd4fef505d6eafc29U, 0x17eeecf7ef22bee4U, 0x922bcfff5fd1d56U, 0x1c0bbd0515ccdd33U,
  0xfc3e4ce316cb0afbU, 0xe314fad6130e3ee8U, 0xd821210a57f6d0e4U, 0xe11421bc8e3160bU,
  0xe518e426fef523faU, 0xd2d0e2e516d0c0f3U, 0x2c2fdacfce053a15U, 0xd403d1c61912f3fdU,
  0x17371ae63cbd2702U, 0x463df3b0bd0f0704U, 0x14f5e0cbc9184e10U, 0xfb33bcd10adeec10U,
  0xbdfdf841c5b9e138U, 0x1e9d005e8d364ebU, 0x24b7e3fe2700ec04U, 0x2dec932323df1fabU,
  0xe7f1e8df329741dfU, 0x3cdeee1a283981f3U, 0xc5cfe4f3e4d9d7efU, 0xc0be012b06d7d1f1U,
  0xdb32be0ff927f1ecU, 0xeb09e9e4a8f846daU, 0x9000603eacd15efU, 0xf0e91b1dedddcdedU,
  0xc565262a28eb31deU, 0x131b393dd5ec8527U, 0x20e635f402e4ccfbU, 0x46ea070017156107U,
  0xd8fe36e1031fe4b1U, 0x7f0fef23edfcbadaU, 0xf60c215104ddc6dbU, 0x3812eb0f05bce50dU,
  0x824feff01dd051eU, 0xa0def3e8f9053924U, 0xe9e7eefd19abed21U, 0x11f4cf1701cefbecU,
  0x7c20747e8f71611U, 0x8b4dbecd910d09eU, 0xf8d12a0ff60ce80eU, 0xa711faeb3bc9e10aU,
  0x3610e518fbe6d603U, 0xd007dec8a4074727U, 0xe22ee4da49fe21d1U, 0x3dddba18f2f808efU,
  0xf9e9401317e2ee14U, 0x2e11c8faded60a20U, 0xce5f216190ad6daU, 0x8280b06061613dbU,
  0x5b7dbb20910ddf8U, 0xd2de0a0a0e64dd00U, 0x1dfefdce74ff2cfU, 0xedf9143010e553c2U,
  0x2cecf6f6f51cee18U, 0xe1dcf3f129d45e12U, 0xc7f6e4b51bac190aU, 0xe9891de92bf90f17U,
  0x406c33d19f3463bU, 0xe6d42ff5e6102b24U, 0xce90239d847bbb0U, 0xf61a58d0f1ede3f1U,
  0xf3152af3cae705edU, 0xf2db1bdc140ab4feU, 0xf8010f1a13d8e1e0U, 0xfeff6a809f5efe4U,
  0xfbe500f5eefd033aU, 0x120242d2e0f62ce5U, 0xff4e1d6e6ed2704U, 0x170203d803edc719U,
  0xada0e244ec33f14U, 0x21e50d0509efe4f2U, 0xf62416d101fac605U, 0x243d00ebf01ff6deU,
  0xedf91e16c1f80eecU, 0x22351013fee01c18U, 0x28e9cfe1d3051d0eU, 0x2aca110dfb06f319U,
  0xdb1f1515eb2df90bU, 0xece90bec0125cdfdU, 0xeff1e10909f10a1aU, 0xdf0d3621fd000bebU,
  0x9851d1ebf9fff0e3U, 0xad1fb0afd26190aU, 0xd50edd2ce1e5300eU, 0xeb0d0cfbe3c7fb07U,
  0xa25f924e5eae108U, 0xeee1fffc1322f90cU, 0xde00eafffd240ce4U, 0xff030c09ed38d4f3U,
  0xd4c1cd20e3f8dbedU, 0xf7fc5cd910d522dbU, 0xf9eec7fde6fa1ce7U, 0xcc0c2618f3edec13U,
  0xf704e412d1e8f0faU, 0x7fb15f1ef1ee149U, 0x31e81bdffaf200d3U, 0x45ef1dfffafce80aU,
  0xf313e30f1dfbed2aU, 0x40f024c7ffe0b0dU, 0xcfce34507def502U, 0xd205e6f8080d4c00U,
  0xf3f8c8e301b60000U, 0xf5ee2114ebfaf42fU, 0xd80b2918080bf301U, 0xd8c60cf91fd400ffU,
  0x9f07e71ff3f70ae9U, 0xf21006f015e43406U, 0xf43103eb320a3621U, 0x403180ef8e90418U,
  0xf1eed9f20afdee2bU, 0x1e2bccdec22f0217U, 0x18f5d20ae2f221e7U, 0xf6ee010c232fe4ffU,
  0x1600131601100012U, 0x3d2fde01eef48f5U, 0x7c512ff122c1521U, 0xdac12cf926d8ffe9U,
  0x1d0e0c05f3020caeU, 0xe2e8ef1f02e21510U, 0xffdf305fe120af9U, 0xd918ecf0f6fe0212U,
  0x38f505e1d52fcdeeU, 0x20f40af203ede721U, 0x13c418ff20e016faU, 0xe6edf4021ae01b33U,
  0xdcf4bfed2014f21fU, 0xbb0de72ad74eb2e2U, 0xda244de9fdf0221dU, 0xc9ff1dedf40ff6e1U,
  0xf9fe3ff4eb9fc011U, 0x1509fa10e3424332U, 0x41f2dcffff021d18U, 0xe4c20802161605f4U,
  0xd0f8f8fd14d51ebaU, 0xe43ddcf0271af218U, 0x20f7b0d52c294709U, 0xea5813efedd6f8fdU,
  0x44c8a8f808dff118U, 0x281c0d402f2bec19U, 0x32fbe5e6dde6011fU, 0x3504eaeb3511e025U,
  0xf5fbed1702d21ad3U, 0x72314171329f4f7U, 0xc0d81d10ed0ad70eU, 0x39ab161b07da41faU,
  0xdb0b1cece7e92f31U, 0x2e17d9fbcbea0a10U, 0x12f5fa431d11ef1eU, 0xe4b9340af43e0e44U,
  0x9fb11e605140ad9U, 0x270cf6f4c6def5ffU, 0x10fdfa2e28bc4e10U, 0x77222ac5d613ed19U,
  0xec19f8ce1941350dU, 0xee05fef8e7dbecfaU, 0xdeec0ecf1dfa13d4U, 0xbb20fa0416f3da07U,
  0xf2de230fcfdff2ddU, 0xd018d016d2e90e4fU, 0xab24c4d9e5010ff3U, 0x450822d4031febeaU,
  0xb0fe0fddb061a2eU, 0x1624e84d14ee00b9U, 0xb6fcdcf6fc46de65U, 0xf60a41aeecda30d4U,
  0x2dcf808fa06ed03U, 0xdf9950aeec50dabU, 0xcecafdeb1e05180eU, 0xdedfeafa1411f90cU,
  0xf32f26fb0c04e3eeU, 0x1ff7da3400061fbfU, 0xdcc71c30d1050fffU, 0x3df206de01082ddeU,
  0x1aea20071600bddfU, 0x305150e1a020eddU, 0xfad7db121add44f1U, 0x24dbdce7f9f5fb00U,
  0x60905282b11f6f4U, 0xbaedf1da15174581U, 0x461b26fc022f0e29U, 0x11dbfd17d4f8c5cdU,
  0xeef91319fdf81de1U, 0x28fb1c1808140a31U, 0x1f52eef214bc1df1U, 0x509d76fcaaf163aU,
  0xff008e720033452U, 0xf32f1b29301d13f3U, 0x534cd1db45fcd46aU, 0x120916f3f0e62cf8U,
  0x170d22c00cd8e70dU, 0x14fa20fcc7fbcae3U, 0xee13c1927e3031dU, 0xf836e1150e1af408U,
  0xb150a9700e828d3U, 0xa02cc31e9de2537U, 0x12dce726f5f70dffU, 0x32b7021df6e4db18U,
  0xcc0ff9f389e9c91eU, 0x500dfd1307e3cf0cU, 0xeadcb6f414d40d08U, 0x27be181afe262b20U,
  0xe62e1a00ee0814e0U, 0xe408fccceff82e08U, 0xdc09e2c5fd0cb80fU, 0xed3be12629b0ec0cU,
  0x382e2914f110e426U, 0xec15e12c04082916U, 0x1628291c1bcefcd4U, 0xe52a0feddcfddc1dU,
  0x25d59b1de4252aeeU, 0xaf3e0d2e2d3ead4U, 0x25100a32e1c206ecU, 0xcc26c8e81c1d2924U,
  0xe0cf112202c91200U, 0x2810f9f456dc2244U, 0xa2309f7f8330afbU, 0xe820f1e30a0b1519U,
  0x4061ad0fbe7c822U, 0xd2070581fd27f1e3U, 0x10e5bf13fa0311ecU, 0x2cdc14d8e9250e1eU,
  0x990000f7ee2e0424U, 0x21db0ae92130fefaU, 0x35f305d613cff61bU, 0xb8150e2ae001eaU,
  0x330cd22e1711e016U, 0xe4160cfce200eef6U, 0x30e9ebde0c1cd932U, 0x8f999e212edcfb7U,
  0xf8251305d3ce1b29U, 0xbc0819affc20f2ffU, 0xed91ded17043f25U, 0xb4ea090837063409U,
  0x1dec292319c6d528U, 0x31dfeee10115c0d6U, 0xe15db960ced3c0eU, 0xeff4dff2ebfae8f2U,
  0x1e0f44c4f711fdd7U, 0x2dafef9bbb6f71bU, 0xf516e732dcea0fe8U, 0xb41371707070924U,
  0xed391fe904f6140eU, 0x191d0f07fd5823d9U, 0x120401ff36eb1c28U, 0xf4f4e70d2e27dd18U,
  0xf7ea10f81204110aU, 0x16ec07f117e7f0d5U, 0xf0f2e60a52f00a0eU, 0xe0f152fe0b1e11f5U,
  0x70840eb2610d311U, 0x50e62dc06213bf4U, 0x9301441ed0f1e13U, 0x523ec11ea041cc8U,
  0x19df46ad11d2f739U, 0x113914e2fc2a40d7U, 0x93816d7053c0e1eU, 0x10d718bbe20e32cfU,
  0x2f03c4fad0b1e917U, 0xefee13e10ad00b3aU, 0xc49130dd0dd1932U, 0x2300480a0c0a920eU,
  0x19eaeae8f33516e4U, 0x5f2e818d531f71aU, 0x3fe06bb06e6030cU, 0x308f345d72afd02U,
  0x40ec144ef6b61931U, 0xe64c12182029d0fbU, 0xfe100cce94436fcU, 0xd312f211d2ac21d6U,
  0xf23fab37f8f0fc23U, 0xbc0adaf7303787f1U, 0x26fddfdfd6c8ea08U, 0x120fd0d1fce62f00U,
  0x1506adf9ef14fc7fU, 0xf714fcec09e9f919U, 0xfad8e6cefb2f113fU, 0x2267ac230a22cbe2U,
  0xad310617f824fb28U, 0xc0c41ee837f64c13U, 0xd3130cf822c90ac6U, 0xfafd0726394111fdU,
  0x4a1805f6db1627e1U, 0xd5fe4e0defe4170fU, 0x58d5260509110143U, 0xe4a1a23e7f63b31U,
  0x14d518d615acdb33U, 0x1c19ebe1e91dea27U, 0xfa59e00003e927eeU, 0xefce39f613e12e0bU,
  0xdd938f90949f234U, 0x32c903e2271a207cU, 0xe81914dd0eec0f39U, 0x3e223f52e1e14ecU,
  0xd1e412a290a0408U, 0x17ccd601dd02e322U, 0xee0f24e1c30b2908U, 0x2a26e98d1d07f4ecU,
  0xe3ee5432c034033U, 0xeed2ceac021be429U, 0xf80e130bc139d2cfU, 0xffea1f14e7c0bb25U,
  0xfded2b30ffe528d2U, 0x3417b82a04041fd5U, 0xc8f30a02faea101dU, 0xe4ddf0ce10c44e6U,
  0xe04f26fd0548ea0cU, 0x36c8c3e1b11d0a17U, 0xea011ce5ed3a0b1cU, 0xfaebef12ef0eed0cU,
  0x2dbefb0a0f2203f8U, 0xff35fe07d54612c5U, 0xe30a084408dcd83cU, 0x3918a14315e50f3dU,
  0xeedcbcf4cb30ad05U, 0xf0b2b1dfdce1224U, 0xef47180dcffa0945U, 0xea1903ffe4163065U,
  0x301a1fbf1110f9e5U, 0xe4f933f21a03cc0eU, 0xc0d0e2f10f3d0209U, 0x13022217f6ea1101U,
  0xdd21bffe17e7eb01U, 0xcebed73e3a0d0100U, 0xe7aa3840daee74e9U, 0x4ba2f9ea27bc04fbU,
  0x3e10ed8dbd8fd12U, 0x1a200ffe392bd447U, 0xece73ef416fdf721U, 0xd04535fd2913f708U,
  0xe03fbfb713e1dU, 0x6e26cbd41613e136U, 0x25f218efdbc32f1fU, 0xd5e1e3fb233bf3f1U,
  0xee2022d71c2431deU, 0xe721dfe7203493f0U, 0xfd312f44feb2519U, 0x4a130503eab30d27U,
  0xf4cbe2ee1d2c21e7U, 0x15e02b2dbff308b0U, 0xfa112df6e6f3fbe8U, 0xef0f16eedb1af848U,
  0x390b2726ff10e9e5U, 0x113aff2500185462U, 0xe20ffa1f12e15624U, 0x75812042bf4c9e1U,
  0xffedfce21a01f608U, 0x21f9e1d60aec4d38U, 0xea08d910001a52c3U, 0xc70100c2fc29093cU,
  0xf6f8282c0d53badeU, 0xb00af4f508fef508U, 0xeae5f71345ed1673U, 0x343a15e3d2dcdb22U,
  0xed01ebeff330db0dU, 0x17ea2ee35017330eU, 0x193dfc41fdd31446U, 0xe51234301f0946e8U,
  0x110d30e50a35f8f4U, 0x310a0d38242fdafeU, 0x1d20dad0e7f2e937U, 0x36e32c1a2ffe0ce2U,
  0xa9d8d4de170021ebU, 0x141d40e914e645e6U, 0x503029d403d30d21U, 0xe3dcce0f260d24U,
  0xbd7d7f55419ce16U, 0x631c1850cdd1aafbU, 0xda1a1cef0d07adf7U, 0x22b2e3d7041e0033U,
  0x1e20c01c1a231ffdU, 0xfcdd18c498d31c09U, 0xc9d9c5cf492e10d2U, 0xc9d2fdfdc1031447U,
  0xfe0f200ee1eafc3bU, 0x430ed3d542e91d5eU, 0xcc020912d2050e0eU, 0xf44cfb29ceeb5ffeU,
  0x1ff93bf51211cdf4U, 0xf72de307f540c69aU, 0x13f7f7560bf11e7fU, 0x1d26edde2633fc14U,
  0xd9f1e8f60222f416U, 0xb070ab4f5cc14f3U, 0x4eecee1a3cfe2a0eU, 0xe094cde25f52016U,
  0xfe18e32b421610eaU, 0x20016f31808340fU, 0xc5eb01050f210408U, 0x4000c241adfeefaU,
  0xd9210e04e9e203f2U, 0x5f8fd15fe380ed7U, 0x9e90135d5effa0cU, 0x1f0315f506dc2ae3U,
  0xfe3f1061225f2f9U, 0x3b11d8c1f1edecf5U, 0xf43a1cf11ff8f211U, 0xdf3906fe2311e9fbU,
  0x154721e00af4faf1U, 0x37fdffdc181ee0d7U, 0xbf072f20de2244ecU, 0xe3fef9f0e700ba0dU,
  0x5113c419351010c8U, 0x1af7d5c8f61a04fbU, 0xfb08002c190cee04U, 0xf9d8000c1601fcfeU,
  0xd20c0b24fc0c0432U, 0xc2d6fee33d042623U, 0xf613ebe33ff5b80dU, 0x45d6dfdc1809010eU,
  0xfaf8d6fbfd2a02e3U, 0x1fcceaf0493920e1U, 0xfeda1cee021bfed0U, 0xcff5ea070108040cU,
  0x1c1b1eb603200b39U, 0xeeccec29f90a0b23U, 0x17081ecac8f2de0dU, 0xdeffdef1adf2239U,
  0x2dd500a504bb091cU, 0x12e309edf625b1bbU, 0xbbd3030afc3c1de6U, 0xb4350aeee681ef09U,
  0xb0202e8f7d705abU, 0xc301e7ecfa1d1ad6U, 0x1de3d6180ddec022U, 0x25c411ef32e0e327U,
  0x382822eef212c2f0U, 0x20cb1cf2f9f613d9U, 0x3ff8fecdfd18eaf1U, 0x5110130dc1fa0624U,
  0xe712cdf5d20a30eaU, 0xc9f0edfb3a151bafU, 0xe3f2280123e2f3fbU, 0x9f2fb37f8f132d6U,
  0x1be22bd31716f1e5U, 0xf151ae60df02ffaU, 0xa41eda34ef25e111U, 0x6fface449e3d015U,
  0xd92de105d81a2e03U, 0x330eeef1f2161f1dU, 0xe9ddf30428130417U, 0xe9e2e2001514c1f9U,
  0x222bf60e2df2b5e2U, 0x16251102dc0726deU, 0xe1f4070b09261c53U, 0x17f6120fcfeafdfdU,
  0x3fd1af211cf08f6U, 0x12e4b71fe4fdf42dU, 0xffd5f6e4e50c2de0U, 0xd520eaf60fdc0413U,
  0xec0b1e0af5d0011dU, 0xdae4081ae8fddcffU, 0xf8f802ee072d212cU, 0xe4dcff06c9eff5d0U,
  0x18dd27dc2d29f415U, 0x15f3ebe50c0d02f9U, 0x1bcc01ece1f10c2aU, 0xc7edf7e909c2d810U,
  0xc11123df0ec3eaf4U, 0x15ddf9e215240306U, 0x81fdf190408fc2bU, 0x2ecffded83517e9U,
  0x21dcdfde44e1211dU, 0xf21d36153e1a240bU, 0x12f071035d3f808U, 0xc0b04ffbf0afeeaU,
  0xdf12f1e00b210ddaU, 0x1e1a3119072feea8U, 0xecc07eee1031613U, 0xcdafc04da292012U,
  0x2d17e806050318f3U, 0xf3de816d901ec1cU, 0x3e844dac20eea0bU, 0xdfcef6170a160d0dU,
  0x25f13a2924fcdf17U, 0xf018e5e7cfe5181fU, 0x4f229e916d42617U, 0x130fd2e70af9f252U,
  0x401ce2c930b60dfdU, 0xf523ebffd63ed3eeU, 0xb0afc0cd02a28f0U, 0xbe0f22e1f7263828U,
  0xe50604131138dffbU, 0xe5f5f948efe5d91bU, 0xfa23eaf1e72406dfU, 0x7fe300f43beefec9U,
  0x3f821110f1806f9U, 0x291141fb4b31e7U, 0xeb05bf15e0feee0cU, 0x525ea0cebf105e8U,
  0x25fdbddf06fcf5beU, 0xe2d517ea10d3110fU, 0x1e28c51008e3c9e7U, 0x30af0e51c320703U,
  0xcf7a8e8f4e8c6e5U, 0xbe0d1211f2cae4e4U, 0xd8fff6eefc1ae311U, 0xe12e01e8ea002ad2U,
  0x21d225010110021cU, 0xf5d2cb04defa0805U, 0xb2f405f40434f307U, 0x350902064ad7e514U,
  0xadded1d06f32ef5U, 0xe6ef010be6f535e0U, 0xdc0d06d911242f19U, 0x14191ae2281fefecU,
  0xd8ee032115162c2dU, 0xfa09ecfdfbfe04efU, 0x183a0cffe2010dcfU, 0xf203e3e4f4c8feefU,
  0xf6e3f6ddcc0400U, 0xf22014c8f9ff1cfcU, 0x2103131c021105feU, 0xd5f1defd0ae0df0eU,
  0x183be1d3fafbb41cU, 0xfbe1e3b1f0ef24d7U, 0x1e0d2f30cfff7ecU, 0xd61f54c305e6e6feU,
  0xe3efe728c319fbfbU, 0xf4271216ec11db3aU, 0x92813d52a0c1a09U, 0xf2e61b06efeffcf6U,
  0xa1410cfdedf70400U, 0xd4ef02faf0e0181eU, 0x14e7242adf0b12bfU, 0xf4fd09fd06e3261eU,
  0x30f40dd5ecd60eU, 0xffff27fffff303f6U, 0x241ffdf2ff0128f4U, 0xd8814be9d5e205dbU,
  0x1be5d71bf11aed3bU, 0xecf7fb1afcf13612U, 0x619f8ba1d09fd10U, 0xe7d3dd22ffcd1918U,
  0xfbc5e0f00814e513U, 0x36f21506a7070626U, 0xf0f207f02c0924U, 0x37e72402082106f9U,
  0xf5ecf80207dffeddU, 0xae70d0dff002afeU, 0xfd16e8120b03f90bU, 0xe37119ee10f408fdU,
  0xed151d02c0001ae4U, 0xfa0bf8162b150aeaU, 0x201043270df2deeeU, 0x1fea060e01b0d928U,
  0x2a3e28e3e504fff0U, 0xc0ce7d8ceecdb3bU, 0x35e20efc26f9001cU, 0xcc2af8eb007339f3U,
  0xce02e9390bec11dbU, 0xffe63622deeee11eU, 0x29efef09cef417dfU, 0xcd030e1f1af04e1eU,
  0x42011ff07dbfcfaU, 0x931f3f010100709U, 0xf61101dc08f2df1bU, 0x721dbf8d2f707dbU,
  0x1deefa0f38f12429U, 0x31f4e2f900eefdfbU, 0x4092107f4ede1eeU, 0xdfe0f1031f802e0U,
  0x70ef8d1142cd614U, 0x304d33321d304f8U, 0x293dff17f9f3c9f5U, 0xfd0509f509dc3ed9U,
  0x151f3629fdf202d2U, 0x7e50bf7f92b18e4U, 0xdc0f03d2121406ebU, 0xaa29e01ce6fee8U,
  0xe506e0fc121d1904U, 0x2f73f34091cefeaU, 0xf11f061c1bfd1523U, 0x707d327cb1621feU,
  0xe3fff3261eedefd0U, 0xe1c171ade1d0f2fU, 0x1145ae053d11e522U, 0x609d52134dec00cU,
  0x22ec3803142cf5eeU, 0xe9dfe400b1cb7ff8U, 0x621c9b409e6ec03U, 0xf9f7f0fb0206e820U,
  0xf52f12370be5d406U, 0xb3e6dac81412f1feU, 0xc9f6e326e0ebfe00U, 0xf6e2e5de2f0ff6eeU,
  0xf52cfdc90bf131deU, 0xb20c1ec032f70eefU, 0x1311fb2cf0dde7b2U, 0xf00311e1c49d405U,
  0x413515ff14081d19U, 0xfb1908ee12f521ebU, 0xf011653c70df5faU, 0x9f9dced391e580fU,
  0xdfa71c10e004bb63U, 0xf31de74307dff006U, 0xfcfcd921dcfaf021U, 0xdba8caeddc2222eaU,
  0x2e3141733f5de0bU, 0x13f712d503dff5f4U, 0xf3f50e2aef21d323U, 0x16ec051bedde17ebU,
  0x52e6f0f1fc37fd34U, 0x252de4030a06eb17U, 0x16fe0c0ef8ee18eeU, 0xdee934e40be40007U,
  0x2114042428d60b0eU, 0xfffaee1802defa09U, 0x20303300eafd22e2U, 0x271dfc3bd2edeef0U,
  0x12041cdc12f72e01U, 0xf44e061fba0d042bU, 0x311d0df20652f215U, 0x50dce5d6eac7bdfdU,
  0x8f1f8f7e7e40d31U, 0x308da3064f2e5d7U, 0xcb0940feea08c6fcU, 0xf9f20f4bbb031b32U,
  0xd8f91ee20dfceffaU, 0xf52416112cde3600U, 0x3c12e0b708fc19feU, 0xe84eede7003bee33U,
  0xe1f842e3231911d9U, 0xffd911f85207e0b7U, 0x2d3a15fcfb20c31cU, 0xf0131503f002e30dU,
  0x23231022e4c92138U, 0x4f804f3ff0be02bU, 0xcad714f018260bU, 0xde0dfcf639da11f1U,
  0xfe1f08cff825dfdcU, 0xe501efe60613e6fbU, 0xd5e808f4070c1d17U, 0xe9f420f84c1c081aU,
  0x32abeaf00d1e0421U, 0xd4cc2c0adf30de9fU, 0x9b8d128142af7f0U, 0xeff10df9f3fc3698U,
  0xed02bf243b0716f8U, 0x33ece4caf517fcf6U, 0xe1edf7fcedee0517U, 0xc10bc3173009e00fU,
  0x16f2344fefe9eee9U, 0xfcbf1e19f9de1efbU, 0xc24ec63e330316f9U, 0x10f8042422fa1e1dU,
  0x171d3af30029202dU, 0xd429f5e7e7dbc720U, 0x1efe1e33020b0017U, 0xe004f727d4193505U,
  0x2c300de7e9e3eacdU, 0xdae32ae70ecd2afcU, 0x103909e404c601f2U, 0xf2d320bd703ecebU,
  0xb92bdc132606ddd8U, 0x35f116e1da1b1edaU, 0xdf334203f0c82be1U, 0x3d5071d2dec141eU,
  0xc5f6f6070b0729d2U, 0xc5ea061defc8d6cfU, 0x1a01c3e60d2d1af7U, 0xc02e109f8101e16U,
  0xb27cefeead2fe03U, 0xb250b0d00095ee5U, 0xedbbc90fe4ca5233U, 0xc6e004ce07c8c6feU,
  0x2704fc2af0082812U, 0xd5dfdbf53320f407U, 0xf4ece7001fe412d4U, 0x324f11e1f802f425U,
  0xf331a616f9dad735U, 0xae1fb0fdd360695U, 0xef3d08b8f102151bU, 0x20ff32ec1112f3edU,
  0xfbec2e1a05ad0f2bU, 0xe5e245262ff5fb2eU, 0x40fdf328f5d5e3faU, 0x22b31516f20ce2f3U,
  0xe3ded2e8fab8e2ebU, 0x51d60b2831e3feefU, 0x2db24329f0efd8e4U, 0xfed435e4cfceea0fU,
  0xe9ea1709e3eeda07U, 0xee14df2ee70ad206U, 0xe1e8d5c5cd2a2de6U, 0xd5101cec05dcf2f7U,
  0x6081b12e349fb17U, 0x5cfb02f9f5f8ebc0U, 0xf0d03da183404f0U, 0xe3ee1aed1e3de91fU,
  0x13eabb1311f2f513U, 0xe01fc72abce5eaf1U, 0xbb1ff9e9eec13216U, 0xdfff141f2ffeedfeU,
  0xdf10ee0a041ed3e9U, 0xe0f4080cf7f6190aU, 0xf0dffdcaf90bb1d5U, 0x60fda3af0f00316U,
  0x7fd4fb3921281f2cU, 0x19cbdb30fecd28feU, 0xd21c1405e9231605U, 0xede6c9f7f823242aU,
  0xe6fff41ac202d737U, 0xcfd4dc072c0e215cU, 0xd930d4f516ea07c9U, 0xadd74be7391427f9U,
  0xe8011f044f1c0303U, 0xeaeff29cced6c731U, 0xc05d2ca2e6fffcc6U, 0x1cf2fe15051fe237U,
  0xe91400034aed0903U, 0x2b19d20304dc1b12U, 0x4ff5080b0113dcfaU, 0x7fedeb4e4280200U,
  0x3abaad423d230ad9U, 0xef05fed5ffde291cU, 0xfa28cff594e450f0U, 0xf306cc042d0b1c00U,
  0xdf2de9e51644f50bU, 0x2f0de6e31faabb37U, 0xcd362000fc01359fU, 0x12037de502073be1U,
  0xebb0c006bf9263cU, 0xfae4293d2f04e5f2U, 0x447df0b17f6eb01U, 0xd80a02210246ee11U,
  0xaee635bacfe70016U, 0xf8f6fde9ec3f0ea7U, 0xc080d050ac63915U, 0x15eae66bd50f12f8U,
  0xcde209bbe30a151eU, 0xebedd7c2071bc907U, 0xe92e37deee1327caU, 0xeeed06f31dcf034fU,
  0xa405e3d2ffa3bcefU, 0xf81ee939c42af1fdU, 0x1bc7fce3cf20f7ccU, 0x37b8c63806f7f50aU,
  0xe7f2d728c6d41defU, 0x51f00d020e2fed39U, 0xc80d1a290d1e21f5U, 0xdeebebc4c74df121U,
  0xc30ffded20fdfae5U, 0x64f32044ffb0f202U, 0xdef616f31a2937c5U, 0xf0bc02143a42ec34U,
  0xb1f0afee0a02b0ddU, 0x182efec3d931321aU, 0x1ed2178c432bfde1U, 0x20f7b7d2fcfc0e22U,
  0xe0c805f02117361fU, 0x501f063b0c1effe7U, 0xe6081a0e14e40f0dU, 0xcefa40d9048c1afeU,
  0xffbeed2f061207e0U, 0xd6241b23eb220f37U, 0x25e795d2c7d708f5U, 0x3db2fffa2823b8f6U,
  0xebd5231e07a855e7U, 0xf6201b0aab15f4e5U, 0xe8f542e2e67f2cfaU, 0xef22f1fa8e37e9c7U,
  0xefb737d912facc0aU, 0xe92a21f200ee2beaU, 0x77e628020415010cU, 0x46d234df220b5dc8U,
  0xe513f841ced1f918U, 0xf0bd0015c3e4df24U, 0xee2ebde00f3d200U, 0x44e4541cfabfaa01U,
  0x3c4202a26e2931aU, 0x16d929d1f805f5d3U, 0xcbdee8fee5ec2a09U, 0xeb2a0bda36012874U,
  0xe1f2111497170ef4U, 0x1ad1e51e04d0f203U, 0x3aeefecedb091fedU, 0x33a4000f809bb1eU,
  0x30061a2fe1e1f0f4U, 0x881b097324cbd9fdU, 0xdd1d1122290ae0U, 0x436ff19f9ea0c1dU,
  0x44d91c270cbde4d5U, 0x4afdfb77280ee31eU, 0x5e60f1fffa8c817U, 0xe91012ecf52c2618U,
  0x16ea08104542399eU, 0xd905374ccb2041e5U, 0xce17dce9fbe80643U, 0xedefb5fb19f9e82bU,
  0xe090d17131dd3f4U, 0xf4d411361a04e7U, 0x1908c3122c32cbe3U, 0xeaf59f9746eff2e3U,
  0x1d4029201b2dd812U, 0x20bbcd28c7100acfU, 0xe503e93df51ddb5fU, 0x28e4e10fcf24f1c1U,
  0xdfdbecfe0622dacaU, 0xdbe80026200b18e2U, 0x29fcbd2fe8f31cb3U, 0x30e8300dcc1cfe8eU,
  0x803f3040708e3aaU, 0x27f51e08badd273cU, 0xda02a8e1c9e90ad2U, 0x23edccd8e39e0137U,
  0x322f9e4001916afU, 0xc5ebe8051af8feeaU, 0x1eee47cdef2fca1fU, 0xf11b00e0c4f03142U,
  0xddd935ce1f211edcU, 0x1cca4f23f6ce4bf7U, 0xc8d2fbf2bd0fd436U, 0xdbd6f76f13dab809U,
  0x16f7f62d2e1007a8U, 0x2d23d89ee4b012e3U, 0xf2309e2c0d3ba8a5U, 0xbf10f8defae0f029U,
  0x4140ef5f7053d81U, 0xbef6f0e8330c161dU, 0x25af681203e11932U, 0x11113625a40c1a32U,
  0xe927be0b092900dfU, 0x3522edf01a00e14bU, 0x7332f23461c032aU, 0x4724ef08f4f0a3ffU,
  0x3ebc845d1e9e1d6U, 0xdf57df2fdd0ed20aU, 0xf017fce7ea1a2c3bU, 0xcafdf510d3d733f7U,
  0xf5f3ee02d604de12U, 0xcd40dace2cf7d838U, 0xf3eccae310f8daf0U, 0x33fff0bcb5f81801U,
  0xcf7eff10cf0f3c9U, 0x18cc060605162b28U, 0x36f23c07030d32e7U, 0x2a2a1a13ef164df3U,
  0x4dff508fce40c2bU, 0xb3d1fb32e71018c8U, 0xeadadfeb60101efdU, 0x2f611adc02dfbd13U,
  0x2219201c4fcb1b1aU, 0x47ebcf0201db07f8U, 0x21fa09c9085acccfU, 0xb917090d1140caf8U,
  0x6e40c02f3f43806U, 0xde31fc6269c3930U, 0x22924b7d0c80640U, 0x3cd23813df070ed1U,
  0xbf8d3eafee9df2aU, 0xedfa01d1b34136d9U, 0xf703f9fcf42124dbU, 0xe514d3e907f5fb00U,
  0x130a28ff30101107U, 0x3efc1719d71600f6U, 0xf7f63014d8dbf2e5U, 0x2ff93e2acd4b00ebU,
  0xe607080a393e1b35U, 0x152e24591b02c315U, 0x24f92509cc1d40cdU, 0xac00c3028effdd0U,
  0x140b1d3a06c708c3U, 0xf60712f50ff4eec0U, 0x2c04fb050643c708U, 0xe33d40cf7ffe60fU,
  0xe616ff1e0e04f91eU, 0xdff4d3342ffaca01U, 0xcfa1ce4fd0bfb35U, 0xc1fbd3fd1d39e12aU,
  0xe13e0a000f16ee35U, 0xe6e20c07dee507feU, 0x381340f8d0de2681U, 0x1c150205dd1610ffU,
  0xf41ef1fdef04181fU, 0x3d0e49f1e1efef56U, 0x180601e0e81c02eaU, 0xa001d1f1e11ffc8U,
  0xfd32180814f209eaU, 0x1c0409d0f7f92b19U, 0xdc11fa10ffe1f712U, 0x21381de619fafc19U,
  0xe6d53c04dbfde6faU, 0xcb1e16450bd2f334U, 0x285214e30f07bc12U, 0xd9362cee28e2111fU,
  0xf4da360c2c0f0421U, 0x500014fde2ebf92cU, 0xc9dfb93907002cf3U, 0x134cc6fa434cfbfeU,
  0x7fbbcf9dbee19deU, 0x2cfd08e8ef03dc31U, 0xe8ca10d1aef72febU, 0xe2ec00eefd0bdb0fU,
  0x1eeed081845eff4U, 0xff2cf6f3d50df0fcU, 0xeafb2c3107d606f4U, 0xc4d3f4ff06f51affU,
  0xcc106e6f1bdb813U, 0x303b1851f3b5351bU, 0xc91d2940fe0b0002U, 0x401e0b32e63719d7U,
  0xf0d201dee0a15d3U, 0xf920fe15008d3124U, 0xd7b048dac4490633U, 0xf1f3de6bf3eae0deU,
  0x391226432f0e35e4U, 0xe4d7e41ae6101c02U, 0xf0d17d1db340403U, 0x200ceb16dee80914U,
  0xed17cc00c111d741U, 0xf9e93fbbfb195521U, 0x16f9ed200d0deb1fU, 0xd82293dfd2f8222bU,
  0x131ab0ea2ff3c9e5U, 0xe25b3618143513fdU, 0x161aa2e6054015d9U, 0xc55fef8dffefb82U,
  0x19dd4004efeb41e5U, 0x5df7cc050fe187fcU, 0xfaf305262607f150U, 0x15fdca16dc1efcf0U,
  0x1206000f0e30f226U, 0xf1ecdfe625041117U, 0x1b01ecf2240201f0U, 0x2421ddece03abde0U,
  0x17e6c1072537e41dU, 0x58e008e322f001b3U, 0xe5cf35faca0eed21U, 0x29fb27f803f6f4e5U,
  0x24e21be8fa022c00U, 0xcbf01c1a64d24122U, 0xffe4f9e9dbdbf944U, 0xf8ddca20ec93ebeeU,
  0x2efacfd5f117f8d0U, 0x3d3a62904aab239U, 0xffa6ae11fd184fc5U, 0x2ed7f2dff6fcf124U,
  0x4c154c07ebef1c0bU, 0x30a22450bbde94aU, 0x1ce7f9ffe6ec613aU, 0xfff749fb0b2dd249U,
  0xdb1cf6afcf00f3f5U, 0xed0f2020f0e9aefbU, 0xe109dac1dde60b1aU, 0x1b0ded05f402c90fU,
  0xbef710efa17c805U, 0xe0e0e5362681b2fcU, 0xeb4b232dd71ecb2cU, 0x928f119c61205cfU,
  0xd8de2c0240dad913U, 0x1aef0ce4c3ffef0dU, 0x149e2e6fb65c1f7U, 0x10f73acd3d0b61e2U,
  0x1049feccf900264dU, 0x111eb0e3f038b523U, 0xcad01f1810469a4bU, 0xf3f2f6ff19d0d8c6U,
  0xd11b0aead828ff07U, 0xe8f82ebf170c29fbU, 0xe70804f0fd0ce322U, 0xfc07cdc4fff812ecU,
  0xe4c3f9e802300fc3U, 0xd61de7a6b709ec02U, 0x22320648ecead1cfU, 0xdf36f1fa11d80ef9U,
  0xdea3e01d9c3cb01U, 0x2918f62cfadbc21fU, 0xda151d4cea0bfed7U, 0x107fd10fe10041dU,
  0xffcbe8f5f0081dfbU, 0x1d0627dff3111210U, 0xe7cff307dd01c567U, 0x155b0cc7f22bea2cU,
  0x212dd3f0061cf3ddU, 0x4fe4511d10c140cU, 0x13d6f53071052300U, 0x1a2b0cf2ffd9054eU,
  0x30691916e6110705U, 0xb1ac3260c143801U, 0xcfecf9da07fde4fcU, 0xd20c05ff0cf2130cU,
  0xbbf0eb1b350c0d0cU, 0xeff1250201f4d834U, 0x1c1fdd13f81b24f3U, 0xbdf1e3d004706e5U,
  0xefe12b0f15250706U, 0xfa15d0ea51150b29U, 0x7fd1cfe710f2d1deU, 0x214024102e1ee846U,
  0xe209040a030106faU, 0x390c0adbb9edf7ffU, 0xc6dcd4f20f0ed6deU, 0xcecee620d6d7f6faU,
  0xc5f31aef1d0911efU, 0xcf00012f8e81213U, 0xff25eb172e12eac9U, 0xebb909f0260ad8e5U,
  0x14f7e5e916e31502U, 0xd3e2e644b3f2fefaU, 0xe5f71607fb0cedcaU, 0xdf26f830f9e21e29U,
  0x36d60a3bfc11069fU, 0xff01fcdffbe9e2f9U, 0xce0d13c2d61531f1U, 0xb5f50deccdc60729U,
  0xff9e4fbf6dad700U, 0x4b322af4f8f6fde8U, 0xe6fefeef2214c8eaU, 0x1f1ee42f1e0ae3f3U,
  0xdd3afff41400e2ecU, 0x4fd1129e83cfa05U, 0x170ff1d80dccdda9U, 0xe80904d10810ede4U,
  0x81a29fed703ea41U, 0xdf10dcc2ba5ffeeU, 0x1f0543bad5dc0714U, 0xf1f829f02ad1f9c9U,
  0x3a1f373200212714U, 0x24261506d60114e6U, 0xcb11c5fc48eb0813U, 0x13f00ef7faedfc3dU,
  0xfd19dbfb39cb13c6U, 0x2f15fcde0dc716bbU, 0x3a2914eaf81efbf8U, 0xe3f4a3ebdcf609c7U,
  0xd7f3ca07e2b5e443U, 0xce111ffb22f274ecU, 0x5f1ccf8eff80212U, 0xf6d8e527e81cfae5U,
  0x2b3a161204111930U, 0x26d3032ff220efffU, 0xc80d292d15bfd615U, 0xf00926e2ec3c2805U,
  0x1b2dd3f712f81a01U, 0xf4d9cf131bc8deeeU, 0x32d0fa0d0719f8e0U, 0x18ffabf72818fce5U,
  0x5f4dae72c31ce01U, 0xe6eb23f1e1f5dbdcU, 0x7fe8050e38e2e226U, 0x1a382f07acdfe212U,
  0xd7bed1d809fb0bf7U, 0xdaf8020b0b2b2a6fU, 0xffec135c15f41408U, 0x2e26f4fa162dfb1eU,
  0x62e0a0bdb08dc02U, 0xdb0c0a2724e40df8U, 0xe8d4ee2ee9f941fbU, 0xd9ff122ef7f1d911U,
  0xa6db0c2befe2cc13U, 0xec1ebb03ebdaf5fbU, 0xf808df1511f7d6c5U, 0x1a2720fd1ebdf60aU,
  0xe447fa56fa2f2dU, 0xd4dd05ed0be822d9U, 0x11e6c14bda1ef60fU, 0x9e4608ff21eb32e8U,
  0x150ec1cf1be4ff30U, 0xf127fde4dad510fbU, 0x10ddd3fea0f10daU, 0x2a1504d2e4cff033U,
  0xfebfd0811e6e4ecU, 0xfb3ae6dd28d3dd64U, 0xfd63bece2eab7f7U, 0xfaa1eefa0a351b14U,
  0xc7fe1611200a1106U, 0xef15f0f73fc9d427U, 0xf7cce1a30b11eb1cU, 0x420ceb42eeef02f4U,
  0xf00ed4f30dcb372dU, 0xd8c632f40e220c19U, 0xfb1f143632f01b09U, 0x2bf8db1b161dcef7U,
  0x332006ffc00fb6fcU, 0x6f414da21e325f8U, 0x12422a0a26f5382cU, 0xea28ef262a08f92eU,
  0xe126c40cf70f01e4U, 0x162723edd852cff0U, 0xc30deaf1ede90beaU, 0xc0f1bf1ee0807f9U,
  0x27dceb16fbd058fdU, 0x1b0212ff35eff9efU, 0xcd0508e5ec22bc36U, 0xc6240be7ecf6f4e7U,
  0xfc11e82314c00bceU, 0x12fab1f613f3dedfU, 0xd323ef0515f103ccU, 0xccebe7dbec0b27caU,
  0xf32c11b9f806dce0U, 0x3047249928bde71eU, 0x312ef467e404e010U, 0xe1647f8e2ee38ebU,
  0xce0eca270f553dccU, 0xfe51dc921ddc327U, 0x4514c4a7edfd0e18U, 0xeb27f032fd1d15f9U,
  0xf2f3f000fcd59fddU, 0xd1f8ff0ef7ed0702U, 0xd414aec3d56c15e3U, 0xf2fe092af2e22cefU,
  0xf2721d19e820ffeeU, 0x42e20e03620bbe2bU, 0xfaeb0607102f241bU, 0x6515cd0d12c00336U,
  0x8b8b420382afc26U, 0x19e2d2c6dce5dcffU, 0x52b16f9fed6dd03U, 0xcdbff90211fc0bd9U,
  0xdbed08edf11b17c2U, 0x1d731cbf450c9af4U, 0xf5dec219b729230bU, 0x4007271709d8aa1aU,
  0xeddefed836d62f19U, 0xca04ccbe54faea22U, 0x2c5ff3100b3306f0U, 0x11720d249cc0dc1U,
  0xbe54a21f1a8d910U, 0x6c26ca0b0b4210ecU, 0x3bf513fe06012429U, 0x3101cdd0c6fa162eU,
  0xf6132003eef51312U, 0xf9fe1a8cffee30e1U, 0xc4f2b738fe2b4905U, 0xf76cd72ad12701U,
  0x6bcbe31714291a69U, 0x57fad519ecfef223U, 0xf8355606f2e21815U, 0x20e0e074100f1f3U,
  0xc8e40aef1c10262cU, 0x1bb90c0106031211U, 0x3ce5111c0631e5edU, 0x341ae6202c814017U,
  0x110b06ff2028e901U, 0xdb0c2523ccd707d7U, 0xcc33254d0606c5daU, 0x3dfef116e7fcdb0fU,
  0xe5f8b8f41ff2c224U, 0x2508f248ed48dea7U, 0x2bd4fc1aca5decedU, 0xcd04e808e823f17bU,
  0xaf410f71f303d15U, 0xf529f619e92709ebU, 0x17d411d7f1030fffU, 0x1f2a1314d8fbf008U,
  0xd10625ecc9191ef4U, 0xbbe02f31824dcc3U, 0x540bf31f2231e137U, 0xf39f3e4f30758U,
  0xe9c7f10101da08c0U, 0xedeeec20c2300050U, 0xe4261feae71b0bf7U, 0xdbf6f2fcd300f9bdU,
  0xe050f00b2fdd06c4U, 0xbe0e8b8f00e191bU, 0xd7e2d5fbbb01c5cfU, 0x439fd08181d07d5U,
  0x1cdad71729e701f9U, 0x309fadd1c331f47U, 0xe7e04abe36011038U, 0xfea5290721ccf20dU,
  0x1d1b60fcf8e9c60cU, 0xe1b07e9f1eec5ffU, 0x130cf81dcbec2931U, 0xead5f3fafdc9f6e5U,
  0xe8f7d7eedcf1f318U, 0xe131fa21eff6e30fU, 0xb3011d08e9bedfb2U, 0xcc08f81ee9e4f4c4U,
  0xf81d18d91ee0bff5U, 0xd8c8dbebca1a1936U, 0xe2ea0f24eaffe554U, 0xdc08210bd2e51204U,
  0xdad5fa0e19170bU, 0xe62809d013eec7d2U, 0xebeacfcb38c3243fU, 0xf9ef07f8190e1a23U,
  0xf4120ddf32070c1aU, 0xcc23290821d3f70bU, 0x150af42dfb1af31dU, 0x251beff50acf7ff7U,
  0xd7f4fe1dd7d7e024U, 0x71df0003514d904U, 0x4733fdb8ff0bf2ddU, 0x4c31e2f11eeefff0U,
  0x11da090ddcdbf928U, 0x9d8f3402509f9U, 0xdc44dedf04f303dfU, 0xfa03eee100fe2dfbU,
  0xf9faf00600e70717U, 0x1ed06e4e8f40005U, 0x3511efdd130004ecU, 0xdcfc04ec192c1f08U,
  0x30260adf0e0f11d9U, 0xf8e455c20fec0d23U, 0xfcf00c132e04efd2U, 0x1922d1ef4535fee4U,
  0x1909d023db6418f4U, 0xf30b10e7f3e228e0U, 0xf72610caeefa02e5U, 0xcf3df04bc1506f6U,
  0xfaffe43a31e2f815U, 0x44ded0ea08ee0725U, 0x5f7cb12f5430137U, 0xf0fef9f4eb2f0851U,
  0x4e7e61dc2da02e7U, 0xe40ff12f04daec16U, 0x16cddee6250024f8U, 0xfe1d04fc110600e2U,
  0x2bfa0946fa2a021eU, 0x3fceec16e6f409ccU, 0xf4ebf241070db205U, 0x2f00e6fcf6f5371eU,
  0xc5280038133d1844U, 0x4a04005008ca21daU, 0xe5f514da3afc0d0fU, 0x2920a022c5f05519U,
  0xdc2715faede530f3U, 0xee0ef23afb2014dfU, 0xd0ee24d71506bfbfU, 0x92826c8feb6071cU,
  0xf3e3e0054f160f06U, 0xe2e3060c04332a0aU, 0xf1d000d3fb3339c3U, 0x143022130be59c1bU,
  0xe2e013f1470c0729U, 0xfd210ac0e0ed2016U, 0xed98ec0c192e001aU, 0x28fae51e072d23f8U,
  0xb211031c080235fcU, 0x47eefd3fcefaf1e9U, 0x20d080a25c8dae4U, 0x3b1714dedbcb2330U,
  0x95eb9f2ddcff25e9U, 0x2eaeff3cb1822d7U, 0x2b16dbef45e6fa1eU, 0x17171ff9f3dc2207U,
  0x1b24e2e11813e418U, 0x1fe1080d0b0a07eaU, 0xf8dadbbccb0addd8U, 0x51c0e3ed0ff3c109U,
  0xde160845e1f60ce4U, 0xe43decf5eac7edebU, 0xb2173bf2fcfe370fU, 0xef14e8da18ef1d10U,
  0xdfce18d4ff23d7ebU, 0x5a080efef2183301U, 0x6b524b92419182eU, 0x2525f836df370229U,
  0xf122e11f9d3e91bU, 0xc8252811fa0cceedU, 0xf7e7f11103131206U, 0xbe42183010fcd3c3U,
  0x905d6de0406f74eU, 0xce0def0fe8151cccU, 0x515e22ddf23c5feU, 0xfb0325fd25f212e7U,
  0x346b0fdd0bf91b54U, 0xfef516221014810eU, 0xddb191c13210181U, 0xddf203c924201f0dU,
  0xaf4c13e4a592ff3U, 0xe6e9e3d7c919fa8cU, 0x5e918fefde7e5e7U, 0xfdc3e3fe3de340f4U,
  0xee00151eebe4f523U, 0xfb36bdf6d6fefdd9U, 0xbfe51bdb46f692f0U, 0xe6e8eecbd7d4f821U,
  0xe492701c933f1e3U, 0x2f9f0252cd4f7e1U, 0x809c8ade410f6deU, 0xecf5ce27fde0fbe9U,
  0x81ca515ed28da05U, 0xff20ec130fe8fedaU, 0xcb2f600faf32221U, 0xd704d218e2093706U,
  0xe7eddfe4c2fb16ebU, 0x1aeae1a2050774f1U, 0xaf1e2f041e3204faU, 0x2f15f31a2b40b60bU,
  0x17f60d85efcbf717U, 0x42080c0014d22739U, 0xde2d19f52ff6b5eeU, 0xe304cd2522f500c3U,
  0xf6fef5e0f19e2813U, 0x1703f9c8d4d13022U, 0x13254c0c39e6080eU, 0x15d6cae215e6f0f3U,
  0x911ce10dc27f00aU, 0xcdffe702e120fa22U, 0x231c3599325507d0U, 0xa300151c02eddb24U,
  0xb76513ed06eee403U, 0xe8cd4b2d5ddcf0e0U, 0xb50012bbf2031528U, 0x34d2f40537f9d0ebU,
  0x2df01ceca93d10c5U, 0xd1120ce0f805fb88U, 0xedf8162709181203U, 0x43dafe0ce9dff805U,
  0xf128ffb3f91ac4e8U, 0x20e0d2dbf2946ddU, 0xedd9e621b6b5f248U, 0x18e0ef1d15c5b205U,
  0x1df9e4190bd8facbU, 0xc31637dfe82a02caU, 0x46c208f2e2eef3dbU, 0x2bd069d112cacfb1U,
  0xf327fb09f74721fdU, 0x13172208cff6ec2bU, 0xf61739fcc7d7d3d0U, 0xe4ea2de74810e2d9U,
  0xea26fcc8ed0bef0dU, 0xf92aede52422f2dfU, 0xbd6f6e22635ebf0U, 0xf2b35d4f581161eU,
  0x2fe70af4f4d6e316U, 0xc2e941cd24e32dedU, 0xe2141e1c2518242aU, 0xe423031408001af3U,
  0xcfd62021e71605afU, 0xe546350e01f304ceU, 0x23bd458d0d00e3dU, 0x85011d051ef43f0eU,
  0x16fc4eb0f0fcd6f9U, 0x3656eefcb2333410U, 0x21ce3bbd03f0f70bU, 0xe8f802eee0f8e600U,
  0xf6f6001bfb2212acU, 0xf9f5b3fb020be5deU, 0xe7502cc0f9eefc3fU, 0x61cc6025b05f4e7U,
  0x37f635d109f2a32fU, 0xfedc090f08d04829U, 0x2d38be09e31329f8U, 0xfe2cd530d306f424U,
  0xa569ea03ff1f08fcU, 0x3ff17ddcda7c6e5U, 0x573fe9bbe2f813abU, 0xe90806089e48f5ddU,
  0xcd310f1a28e30cf4U, 0xd408c22dda1111f1U, 0xe5c909d6e911f703U, 0xfd1feb1910fd0009U,
  0xf5042ac70f10c7f7U, 0x7dd15e21c32eff5U, 0xf72fd80f1e0beff9U, 0xba23d10dcfd80fedU,
  0x31435e60cf41324U, 0xea060403f41bc00bU, 0xf627cafc14cb000aU, 0xe8cf0e0906d41ef7U,
  0xf5f24cdd1d0bcaeaU, 0xf05ed031ce202dcU, 0x26080e150df102faU, 0x1c0406ff1d3a0decU,
  0xd9e2ecc93a09edf0U, 0x6ffd1fd32d20616U, 0x6fc11f516d82105U, 0xdcfc6dc6e70aef24U,
  0xef2bf0060e241e15U, 0x14d9402037f5cc4bU, 0xe7f20806bc0e0615U, 0xfaab3707161bfd1fU,
  0xb2323e8e606db11U, 0xfc1bff153810f9f7U, 0x2bf2ffe52b08f0f5U, 0xbfdb0bd60e2cf822U,
  0xf903df2614d22fffU, 0x20040e04f6181ee7U, 0x1b181603171bdfbdU, 0xfcff03f8ce111524U,
  0xfd32fcdef8fcf4f4U, 0xfdd1e106e514e5d1U, 0x1c4281f9cff40e14U, 0x301c01f1c6570e09U,
  0x1ce620e02ee8f4e5U, 0xc61c22dff0df04daU, 0xf4fbe2ece23203efU, 0xcc39303cffd92bd8U,
  0xfa2032042b170904U, 0xffb306051bede83aU, 0x311ec2fc21fffafeU, 0xdc0c04f3e337fc0aU,
  0x2e21230e05e4c8f9U, 0x22de05b205011c0fU, 0x33d00f241afbffceU, 0x493f3817f4e7f3c3U,
  0x3ffb6172f1032eaU, 0xeaf0bfeb21ca2dfeU, 0x7eeef0b03fc1028U, 0xe8ed12e4f8f80b17U,
  0xedf1e4e9ddff1015U, 0x17100a2fac05bfe1U, 0xbeb605f2fee917f4U, 0x5f209062500093eU,
  0xd20d37f40dea10efU, 0xd7e9031d3604f0ffU, 0xc0ece0af317fadaU, 0xe1cbe2134431e3fcU,
  0x2aeee9cfebef3ce3U, 0xee05b9e2faf81a29U, 0xec19ef022f5fe404U, 0xfb1a4605130c0bf8U,
  0x3eec0f6fafcf70aU, 0x16de030103dd0cU, 0x1b1c0fe8deed1801U, 0x10fbe3fe030c0f07U,
  0xe6e53b24f0f8ad06U, 0x3e6fb26ea1327fdU, 0x1fa17e73016f326U, 0xb1607ea0a29d4d7U,
  0x1b38e812f116f6f0U, 0xf5e4f221f80de6f8U, 0x802f0d80fedf5faU, 0xff1e033c1003e3f2U,
  0xdc04d9151030fd07U, 0xd5000f0705e0e7f8U, 0x1eaf091c16120214U, 0xfc34211c2cf8f518U,
  0xf2f2f22df9d7fe15U, 0xf4ecef2cf1bb1712U, 0xf211d603f3ea2ff9U, 0x13ed0b17f3002be0U,
  0x15131b1e14c2d4f4U, 0x1005eed3f91c0433U, 0xafad740dff10bf1U, 0x9d1500cf9e80aeeU,
  0xf52e1007f0f02c00U, 0xf04fc03fbfcf1abU, 0x15fff71b1b26170cU, 0xd6dd14173f29ea1dU,
  0xcf9ea0fd3e418ebU, 0x2ddf0edf5fb1309U, 0x3ee0d90af9f5f802U, 0x15e6ecec05db060bU,
  0x2736cdfa010ef4ccU, 0xf8fbf7bbe412f9feU, 0xcf6f0f3e4150908U, 0x55e92310e130221bU,
  0x191529d8fb1e1fecU, 0x2dc3040bf216ebe0U, 0xf701f2eee70b2302U, 0xead7151ccceede02U,
  0xfbd522f9d8ffedf0U, 0xfb27041e14050221U, 0xeee8000d04f3d40aU, 0xf919df00f602d901U,
  0xebe3edefeb0a093bU, 0x16f2e2ecd11b0a18U, 0x103a23ea36e2dfebU, 0xbbea1505f3d51f12U,
  0x16ec19f8170eecc4U, 0x1d1bfdfdc107042cU, 0x6d7d21912ed00edU, 0x19f2f20cf019f60cU,
  0xfb141405fc0c2707U, 0x1309d3e000091eedU, 0x10d605ee131df01aU, 0x2b020a0213137204U,
  0x1601d006f8ef4c0dU, 0xfcc01ac51e20293dU, 0xeb01e51c160224ddU, 0xf91001eaf53908dfU,
  0x2d0af2ebd50bf8f9U, 0x6deebfee3ee001dU, 0xd401ce09f80cf2f9U, 0xf90d8116efdfe80eU,
  0xeed21491ce631f6U, 0x10bf34f9c5d40437U, 0x508da05e30a1be8U, 0x29204508d8240aebU,
  0xeadf361cfebe2009U, 0x15251e088134c321U, 0xfb01252a02d90f4eU, 0xe7ef430c1916ab2aU,
  0xfbecd923d409eef6U, 0x1713f6f9f9c5df12U, 0xdb7153d2905e2e8U, 0xda12f6e70616e331U,
  0x1cd034f8ee15ed1dU, 0x1e0c0bee0423af0aU, 0xe4290bead513f30dU, 0xfc6ff611f43f0bfaU,
  0xf41923fb1821ab23U, 0xbb1a21cfe3eaed2aU, 0x29f8fbfd46f31312U, 0xea073705fae8e5fcU,
  0x8ebebe8e9f90133U, 0x46033710141de617U, 0xee040d102c150dU, 0xd6d5052015c9e5e8U,
  0xe40de75c0dfe29f0U, 0xf705f9f9e8f71505U, 0xe22522fe11d45007U, 0x912ea3df105122eU,
  0x20153015e7ec21f0U, 0xe725e4e30427de31U, 0x18efd03300fbeb11U, 0xeee8e01a1af6f13aU,
  0x2bdac209021d0b23U, 0x160fff0800f5f92fU, 0xf4f1eddf1a18d9dfU, 0xfaf80ae90c1dee23U,
  0x9fbe613c923fffcU, 0x9adaeb152cf9e8d6U, 0x11a11f21c9a090bU, 0x28302c0816a7f117U,
  0xfae7d8211121f9ffU, 0xf1a07031cff0c27U, 0x2b2be73523e44b16U, 0xeec201e321382111U,
  0xf55c1efa2614fd30U, 0xfe46dee50f1f03f3U, 0xcde5f0f2070eda2eU, 0x111707c824e90ce7U,
  0x14110be70019ff2eU, 0x1203f3190a0ddfd0U, 0xe620e63101fd1716U, 0xd5e838fcf6d5ffd2U,
  0xc003e53e20cf0e03U, 0xe810f8c6c1f2ec07U, 0x1013e10c1cccfefeU, 0xd8ee0e01203c1bf3U,
  0x1401d5d4e0ffedceU, 0xd317fce417fbfbeaU, 0x302e1716a1e8f524U, 0xe3f1e702aa6ddc0dU,
  0xe0f400f81fe00bfbU, 0x1e4e0a001e4a0bfdU, 0x211af910d0e41028U, 0x131a0bf4060a2efbU,
  0x60df10ba4beaea12U, 0x8ced4dfd3cf2f71aU, 0xce1ff61b29d9a303U, 0xef6e53e0ef7feeaU,
  0x1f10b286a0f3740U, 0xe7f30c07c7fdfb05U, 0x15b106eccdd30226U, 0xdee4cbdb10101331U,
  0x16d847fbeef7310aU, 0x960001f2e27fc5e7U, 0x110fd5d9cb4be0c6U, 0xfe03f44fce2aea0aU,
  0x1bed164db60425ecU, 0xe2f1ec3cf012e522U, 0x9e8f1f5dfdfee1cU, 0x3bbffe0028702c31U,
  0x24fd8f7fdfba541U, 0xf20fed1508f728f3U, 0x402041dd7c0d9d6U, 0xd1f3130ef00ce4e7U,
  0x3e3b1fe3063507ffU, 0x4113b409d41b1cd3U, 0xca10d1f5d9d8faf5U, 0xf13938fe371a250dU,
  0xf40b02d8c7f9e4ceU, 0x1de7e1f2d602ef35U, 0x10dd3839d345d5f7U, 0x3f0394de41eb65e8U,
  0xe8fe06151226051cU, 0x12e749eeef11bcf4U, 0xcaea1ddb14d4e2f9U, 0xbf5e22450dd9990U,
  0xff1736c7204fe541U, 0x4b141b1adf0faf14U, 0xf108cdec1efd084fU, 0xccb1314ead6d513U,
  0xa325f5241719ea07U, 0xe3e2e5e4061718fdU, 0xe5d312f2f216faeeU, 0x52d4e60e27312ad6U,
  0x2c0aecfb222a24baU, 0xa2fd03d567efef05U, 0x1119f0e57411f9ebU, 0x6c20b3a0cff3b1fU,
  0xf8e7c0d0d23df466U, 0x16ccfb092ef0baf7U, 0xf514f9e5f2e931fdU, 0x48042d223df34e1fU,
  0xc4fda4051a4600d5U, 0xec6cd118c8fdbdb4U, 0x70adee308d4dbe6U, 0x293a02dd01fbba2dU,
  0xc4c4d70412d024ddU, 0xb4de191823f503f5U, 0xfe01e5f30c711809U, 0xf10eec21fc5db0U,
  0xfd08f2ef06f5ea39U, 0xc6f5fffa10f4efc5U, 0xfcf9f3d729f91b0bU, 0x70300e0c6dfd412U,
  0xff172ad2cd02c12cU, 0x154224ee341cfcaeU, 0x1937ed1deec1fed5U, 0x45ec152702161e24U,
  0xddf8d7ec0def24e3U, 0x34fe0011f6090e19U, 0xd1010adff6020630U, 0x29060a01fdf8d8dfU,
  0xccc0b98f0cc2d1fU, 0xfec7cfeb8bf1df32U, 0xd80ee801ce350ac7U, 0xa1cfffc1021fba03U,
  0xd8c6da04272a19d2U, 0x3fa0522d800d629U, 0xe6fd2f2f1cd022eeU, 0xf72bffc701eee24bU,
  0x8210b21b8d2ed07U, 0xef1eef3f202e6eeU, 0xffd22672e02f5f2U, 0x4f8e1ef0f0f173dU,
  0xe7f911d81d33e9f2U, 0x1c1821ebf20c06fdU, 0xb50e13fb1cc90fe1U, 0x61126f2e0eb1631U,
  0x1427d31bf041ec18U, 0xea07b732e0fc08e4U, 0xfa01271c1c4dfce8U, 0xeed6321538191407U,
  0x150efcdddafe19e7U, 0x912ed1e24f9ef08U, 0x10103af6ff30ff23U, 0x110b253828180807U,
  0x1cf73b10f2162022U, 0xf4e4100e0e16f406U, 0xe8df5d2915fd0edaU, 0xd4fe0dd9eef80319U,
  0xacfe07cc13fc40ccU, 0x19054ff2d122130dU, 0xfc231e023000f2ecU, 0xbf01c0081ea1f02U,
  0x14ebede81af80b09U, 0xeec20e8de08c523U, 0xfaf6d122f7121015U, 0xf2ecce07184513d0U,
  0x3083c201df0eaddU, 0xff10d1fb0640e000U, 0x930ddc27f8f501f5U, 0x10161309edd2f627U,
  0x3f0d282906e1291aU, 0xe806ddf818ee3dd3U, 0x1e29da17ce3ddaceU, 0xfffcf2c319ba4ac5U,
  0x105fcee074c1022U, 0x93e71d3116f53da3U, 0x121504c5fdd16323U, 0x46050f03f9e5ce30U,
  0xb320cddf0212c02U, 0xb14084f19fa04d8U, 0xfff705d5fa0dfa2fU, 0xed07db261af1f6e3U,
  0x232b27fb052b3ed2U, 0xe80812ed256603f3U, 0xfc0dd8fef510e320U, 0xd7222cdeef1d16U,
  0xea40222f05212304U, 0xfc01c74cfae6d30cU, 0xe9daf02e1dd920ebU, 0x46f5b9f6ca340ba4U,
  0xbcf0be6d3030fe4U, 0xf730ff21f90016e1U, 0xd0ee1808b1f1cd19U, 0xf405d51828fb0a02U,
  0x3cf300ff914090cU, 0x1bcfc73af307aae3U, 0xdebe10af7f0c7d9U, 0x720fdd3ed210ce4U,
  0xe7f30109120ab1fbU, 0x1901eceef2cc2d06U, 0x15e4ea15d6213e07U, 0xf2eefa1f1230e517U,
  0xdd811232b1838efU, 0xdb0b1ddf0742f60dU, 0x182bdd2ce8e90b28U, 0x31001a0838fff437U,
  0xf512f0fbd1e6ed03U, 0xf217f91be20fbfcbU, 0x10f31af1a7251e0fU, 0x25fc34451cfa1ce6U,
  0xeceb1ddaf7fef2feU, 0xd812f1f6ee38f9e1U, 0xfae1e2d4e91605e2U, 0x1905351403140af0U,
  0xebdf02e212ff18e9U, 0xe8fadfe12c07f124U, 0xeffc22db0f12fdefU, 0x1df0f60a7fb907e8U,
  0xd1a04dcd9530d16U, 0xf2073afa15f8c80dU, 0x24d42938d7f1ef34U, 0xf4f2fe0c33e9e10eU,
  0x29251cd7ea0ffaf7U, 0xd7f4ea00dc0ff4b9U, 0x1719f9e9f2abfb05U, 0x13e00d1b0adfdaf9U,
  0xbf00c03f3ede21fU, 0xa90b06ed33e50507U, 0xce401cb22ed1118U, 0x302013f900d3eafcU,
  0x1517e4fd05f5de4bU, 0x28e41800b5f9edfbU, 0xd03d274efafbdb18U, 0x1e20ff07f2f0d825U,
  0x11bfdf4fef52018U, 0xf3b3353ffb26da2fU, 0xd93c0aee23082704U, 0x9feb08fefacf1f09U,
  0x210312c3c216cbf4U, 0x330ed15f8001ff8U, 0xd2f6d5f4db22ffc2U, 0xc02ede8ea631ec8U,
  0xedeaffc5fbc7fe0fU, 0x1f6f364514cf825U, 0xfebc20e81a17e621U, 0x13f4e8e935fe1b04U,
  0x3aef25e5fbcdfe14U, 0xffef8150f1715daU, 0xfb0dfdce12e4ddfdU, 0x1b22f4e8f4ccfe0aU,
  0xf3eef9f0ec1b1312U, 0xfd07edf10f27e51dU, 0x5bf715f1fb0bddecU, 0xe7fa25e1113bfe2cU,
  0xfbf405e9b222e419U, 0xf8f7fb2df034dce3U, 0xf3e019c2fd02f1dbU, 0xe8f3fbf9360e0d0aU,
  0xc6edc2c82de5f530U, 0xe7f748d0cf14dedfU, 0xa0fec91af7e915dcU, 0x45dfb1f1ca2afd0eU,
  0x30b01fbb3ca0df6U, 0x4504fcda16322e26U, 0xb3bef46ffef657e7U, 0x26e410ebda0ac21dU,
  0xef2aea02280311fdU, 0xfcecf13cfef9d4efU, 0x54f931d0b0b01adbU, 0xc6ac5cd9de3af507U,
  0xf100bd03d5241527U, 0xdc17bc05285414U, 0x4fcb2ac4f53fb819U, 0x1e2d25c8da1e54f2U,
  0xbdd7dc28c40d20f2U, 0xf0a80ac41228db00U, 0x3f3f110eef2e503U, 0x13683114dcc717f6U,
  0xeb07dce6e40c2415U, 0xc9ec4720f1f308d1U, 0xfad63fc8df05bfd2U, 0xb725f4e12295ae11U,
  0xea0001ea47c62135U, 0x1ce8db3827941a23U, 0xebe8bef826e6f3c5U, 0xb11016c410dfe2c9U,
  0xe8ef16b12e401103U, 0xd15f319271ae30fU, 0xcbd8f5f0c1ace1cbU, 0x725051f8f456f70fU,
  0x39ca3c190bed0f01U, 0xfef9d31946160c37U, 0xa10f5fe17c102c5U, 0xb071358c7f539f4U,
  0x31c6f007ff1a0bbaU, 0xf3d4c3102221d4e4U, 0xf105f7eee7fe18caU, 0xfb0e17332035e203U,
  0x11f60f2a1617c5e2U, 0xca342e0d38c1cefcU, 0xf2fffcdfc9e4fcdeU, 0x57261ef7f8e017d6U,
  0x1dbbbb0ceb23d8bbU, 0xf907df6d168147d7U, 0xdaff35212febc1c2U, 0x7d43c07fde71b16U,
  0xb0e30b3eef6dff2U, 0xff15de48f12730cfU, 0x2bd2f3c5facec8b4U, 0x300ff709f2e649a3U,
  0x2ba06d4e44c4021U, 0x4e3ddd16d2809feU, 0x1483ce30d8bb0d1fU, 0x100aecf773e597e3U,
  0x3320bb05e3303fedU, 0x4afde7f4e12cbe15U, 0x4c9d85ca4161912U, 0xf612b20ccd4e19bdU,
  0x12f836eeeecee205U, 0x1321b3db2eedf902U, 0xea2308df26e400e3U, 0xd0ef1045f5d904f7U,
  0xea02192426261c11U, 0xdfc1c1af0f43b78U, 0x40e62af6cb14e701U, 0xe6f515dbf9cff9faU,
  0x25d9c414f42af9fdU, 0xdbeee3e103d2fb14U, 0x181f01c52fe838c9U, 0x1408282fb4b2ec38U,
  0x38b1071e14cf1422U, 0x33e1f1f2352e36dfU, 0x2f15e10dfdf2f621U, 0xcdf64008144a0812U,
  0xfc2e3a0932d04334U, 0xe8c2ebfcf71ffd19U, 0xe0362e2101c3b616U, 0xf5187fecfd11d007U,
  0x369b17e6bc1ec7e4U, 0xd0970fcfe6251ce7U, 0x1105cffee406081cU, 0xfe4cf8d80536faf9U,
  0xd069fbe6e70fc4e2U, 0xeb09ee1b11303f38U, 0x53eee2c53070b29U, 0x227a6ef1225eee6U,
  0x19df1fc311032d35U, 0x201132e53807e92fU, 0xb7cef21010e8071bU, 0x21f7d1ead6171e14U,
  0xe8e46dd7f024ed20U, 0x1101c0d1e0de051cU, 0x25fdcbdb13da0ae9U, 0xa544250ac63debe6U,
  0xd31ee209f6f60aebU, 0xb2615d12c2a51fbU, 0xd616ed96fec918faU, 0xe5bebfd09a12d2aU,
  0x5e403f53934151fU, 0xce12f91cf50326f3U, 0xf23e74fcfae1d2b2U, 0x1de07e7c9fe2ae6U,
  0xfa1c17e936f208ebU, 0xe7e6f8ed53fd0febU, 0xee212f300b18cf46U, 0xaf8b100f31e0015U,
  0xdcf40a0c30edf905U, 0xe61d1bb8f8ba0506U, 0xee1f330fe815dffaU, 0x55ca0c41211910f1U,
  0xef0930d5e52ad81cU, 0xafb18151418231cU, 0x8dd49e7110fd9f4U, 0x16c20602a060e6f0U,
  0x140afe1bff47fcf0U, 0xc2dc3e7d5eafdfeU, 0x266af6a5f0ebe32cU, 0xe92e59ae2e093113U,
  0x1c67e9e3fbeef1edU, 0xe6cbe80a11e91823U, 0x309baeadedddf36U, 0xdfa63e6fbf93ac2U,
  0xc1fe013f12c6fa67U, 0x6aae6232de710f5U, 0x14fa0820f7e40c23U, 0xe29b152639191fU,
  0xd23e5f5d60e1f10U, 0x28252a2401fa200bU, 0x1d04c8111a1af6U, 0x36defad10dd4f910U,
  0xfe1dade0914e707U, 0x2bc04be0f2d2c1cU, 0xf5dff2f1e9e2e1fcU, 0xc7a9f9f604e6f41fU,
  0xe703f3e5f1fae11dU, 0x1dfb02c7f84ad404U, 0xffe9f902c31cb01cU, 0x5e416feb2f514f8U,
  0xf0e1b000040f0c0cU, 0xbea323eaf0f0041cU, 0x8f2f5f0b1d3252cU, 0xf15315fb0606f7e7U,
  0x55b4f0fdfe2a0f38U, 0xb702ce14ff0b2958U, 0x28f4117fefee18d9U, 0xef1dc202022d1019U,
  0x3eca082706f3eb20U, 0x31cd110a61f1150dU, 0xfdeaeb06e5dfd61dU, 0xa33520ece2848faU,
  0x3923fc2ccc1cdcabU, 0xdbf11201d8efeeefU, 0x2b01e60539123ee5U, 0xec012bfaf0c6091aU,
  0xfc32e935052828dbU, 0xd7fdfae6dc0449ecU, 0xebfafee10b24f5f8U, 0xf60aef0ae3be14f1U,
  0xefe8510515ecfb0dU, 0xf20c28eb14311501U, 0xe9d3fd44120ef2f2U, 0x14eff3c6ff252400U,
  0xeec10a2800ea0ff4U, 0xb5140be51e031cdfU, 0xf1eada2de5cdfffeU, 0xc33fe80b04f7c9f9U,
  0xc3c4430df6e92eb0U, 0xfd70805e1201efeU, 0x9b1cf9c3e0c8e4e8U, 0x1d51e27152d0bf1U,
  0x293fa33c340dd9e8U, 0x15ee25f9f801231fU, 0x11e6f3110cff08e3U, 0xff6ee23428c70521U,
  0xf4d9440a0ee811fdU, 0xfb07fbff111addd1U, 0xea8dfe8d904e704U, 0xeafa210601122d1bU,
  0x111aac0f1edc0704U, 0x4e0181dfadd18c6U, 0x1ae3e403262d02e2U, 0x52f15f60809f1f1U,
  0x56a10f809d6fd03U, 0xafd2511e60ddcf1U, 0x2be529e72dde0fd9U, 0xe0ec01f54426cf23U,
  0x1be924ea4d7ffac9U, 0xfe380801050101eaU, 0xf0f835f30911f323U, 0xe301fcd2f0e218ecU,
  0xb4b012800f20b26U, 0xd8c5f721a0ff0a5eU, 0xe605df1d0f2609e5U, 0xbc03e723db432405U,
  0xd9fb403dfe03fb21U, 0xa8011df0020b171bU, 0x1a07d51a1ef90cf2U, 0xed20e2edfa4accfaU,
  0x43d1e4c9f4eb0a01U, 0x38d8e7e726163a17U, 0xd41bcc28ff05ff43U, 0xf6d1260bbd4def08U,
  0x1c0fdb0800fcd1f1U, 0xf01104f2080904dbU, 0xee71e20c80b0051U, 0x7e916d9cffe0e2aU,
  0xe01240ea333ff129U, 0xd7dbe7421d00d924U, 0x1614c111fe3821cbU, 0xd0a26f132d0141bU,
  0xc315ec3cd91a3f3aU, 0xf4ff17f91cf3fa15U, 0x3dc7cfea4ceec7e8U, 0x3cd2413e1070e0fU,
  0x12e5d9fbec431df2U, 0x1edbf8dbbadf4cdbU, 0xee1e38ccf4c7c314U, 0x206fcf9352cda1aU,
  0x22fb18cd46363c04U, 0xf6ee10d23a0f3415U, 0xe90dfa05e30311U, 0x23db3dd801e202bfU,
  0x2c06e321fb2a2bf3U, 0xdcad0eb9f9f7f04bU, 0x2ef706e60729d4afU, 0xd920caef253e1f18U,
  0x270ee0d2fed6f0fbU, 0xe83005fefe0ae817U, 0x10d7f8dfc70ee106U, 0xefff8dccff6f8d4U,
  0x9d9eaea0cec0febU, 0xada2a08f996f8U, 0xc4cbff211b0c3100U, 0x1c42c7c8dbffc8efU,
  0xef0fc46ebeecfdaU, 0xa805f9cbedf70dfeU, 0x11f705f1eb0ae634U, 0x1cf62b1e390eea0eU,
  0xbd430b1f302fdd8U, 0xe40925fee81d50dcU, 0x3bdd21b10bfce401U, 0x28f65c19ecf6ab0dU,
  0x12f4db11301ddef4U, 0xdb13fffcdd021514U, 0xeee7fbfdea25da17U, 0xfd56eaa50ec8caf7U,
  0x23bcefeb031f09e4U, 0x637e71904c9fce1U, 0x5bf732f90446fd0cU, 0xfdeafffad2e710fbU,
  0xbdb705f61a11c0e5U, 0xa80f02e30c1d1934U, 0x14d693d202c4191cU, 0xedf2b3fe0d0304eeU,
  0x4ed3511f328e726U, 0x342ede47eafbf101U, 0xff30bc04d615049cU, 0xa702f711c9d22a05U,
  0xf0f9f5f3d4906610U, 0xfb6fe53cf5ed1c52U, 0xf47fd6ff5d1d0b15U, 0x38b126fa23e10906U,
  0x51fecc3e7fa2513U, 0xcb1a0c12aa2513f8U, 0xfe1f1923e4b0ef3cU, 0x5b5ee1cccf02ffdbU,
  0xe2dfeefbfce46601U, 0xe5f5f80807feaeeaU, 0x6beffc0fce38a3fcU, 0xcbf7e6163bf71200U,
  0x3b03b0d7e0e4d8f7U, 0xc87af9edec202403U, 0x170cf00429bf0117U, 0xf2c112ee18ae10f0U,
  0x9fce2bcfedecf8d4U, 0x36d315e427dc3212U, 0x2db70eeafb19ced5U, 0xda17bdd9f1d738f8U,
  0xafbf2490ce9be0fU, 0x1b040b0ae211f847U, 0xda142efe2df9d5e9U, 0xcd6432006bdeef5U,
  0x37e54d11e025e798U, 0x731c14caf5fe29e3U, 0xe2030deeabecb717U, 0xb713230d0c262645U,
  0x36f81c44dee8fcc7U, 0xf0f22bef20f35df6U, 0xdbcc19de1c152800U, 0x1c2920fb120e0df9U,
  0xd318188e23e1fbcfU, 0xbedd403060915a5U, 0xd44a990dfce7bbfcU, 0xe7f40e041907041aU,
  0xcf091e352603d926U, 0x12f1e538390144cdU, 0x3a25e6192b1cfb16U, 0x1cfc2ec5d9a5d42fU,
  0x2010f60318212210U, 0x22ced4e9fde70ae0U, 0xf4fff91fcbf2a916U, 0xd3dffc0323d8042aU,
  0xcb070d0cf1e2ee91U, 0xc7b72b5517c061e8U, 0xf62600f60605f8f2U, 0x910ed12fc04241aU,
  0x1416f3371d3218d8U, 0x141e3bea15f718c8U, 0xe9f422164e1bf7f2U, 0xd82b1fe1e6f11113U,
  0x2722fcf70cd41e0bU, 0xf6ff1ed6cfdde302U, 0x6242a9ad9a5fa30U, 0x3e325fc4fa30aebU,
  0x3d24c3e50949edfbU, 0xf906eb2b102bf7ffU, 0x19100615f0b0e7e9U, 0xedecfee0191b1df1U,
  0xf0ed3f0d181725f7U, 0xd7edfefaddfaf6eeU, 0xc1ed50ef8260332U, 0xdcece0f8e5ddf5e2U,
  0x6d41bf1ff1cef0eU, 0x5f409eb0de62411U, 0xefc82b04f842f40fU, 0xf920dbfc0defdaf4U,
  0xede1f92627fbf0e3U, 0x81606dbf206f512U, 0xdb1e372bf0e92bcbU, 0x27f9f4ddd40bfb15U,
  0xf90adb05f215c1c5U, 0xef1818112f100d09U, 0xfa0904ff010112f5U, 0x6f9382902080b03U,
  0x29dcc8f2e41bf704U, 0xf945d035def205ebU, 0xee04fef50df907e7U, 0x41f31714dff9fa08U,
  0xecf1f0be0716f41aU, 0x15fc0c0162fbd217U, 0x2208f1ffc3b10adeU, 0xd926fb57f614e01aU,
  0xd0f60ce005d2dbd3U, 0xf2fef11d37d0e1e0U, 0x58c6f2f400fa31ebU, 0xe32fd60a02c0f2f9U,
  0xba07fafa2dea0702U, 0x1ceff643ffe3122bU, 0xd237fbf8f3f20939U, 0xe160756ca311621U,
  0x2b1afafb0be5f2f5U, 0x31dfc27130ff70cU, 0x2dec0f12f911e5f1U, 0xfe141814f100110aU,
  0x1e04dc072fee15faU, 0xe1df070c8141d7e2U, 0xf321f8f3ed00d0b9U, 0xee0d04ec01f514d4U,
  0x27c4ed042c1ae4e5U, 0xd8d50121f7fc24e4U, 0xfc04d8a120e619eeU, 0x1adbf5023acefbfbU,
  0xd525e6173406e618U, 0x171d053307e6c13aU, 0xe70005e022dce6f1U, 0xea3e2e0c06cdf8b5U,
  0x1d53540162d1000U, 0xf9f70b4f2cf41422U, 0x18f9dae603c40420U, 0xfdf30c0ff50fdf23U,
  0x6f807fb1d0917e6U, 0x3c112f08eb2c22cbU, 0x3230eee050dff19U, 0x1804f6e0d7e5da03U,
  0xd028fcdd19e602fcU, 0x738ffdf0d33fbf2U, 0xe1f2b4f7ddcdff02U, 0x20310b0bfcf8e207U,
  0xe0bf842540e1307U, 0x3323e8f7eefd2031U, 0x910f44055ecea2dU, 0xfec71e14251508e3U,
  0x555ea2fde0cfbf1U, 0xf70f36c511191841U, 0x2e330e1dcd1bd625U, 0xbff0ef1b221c01faU,
  0x60c04030c1f0fddU, 0xb26e202efd6e829U, 0xdcfa34efde2df22cU, 0x17d61a30fdba070bU,
  0xbc47deb4f2e3fd2aU, 0x270225311ff53f29U, 0xebcc0302200fef1fU, 0x301ff3ff05e8e505U,
  0xe41904cef0e8eff2U, 0x1300c0250e02d90bU, 0x1c2ef3eae5f94b05U, 0x72b191ff200f3U,
  0xcb223b1bd1fe0705U, 0x1c0df216c5fb1ee6U, 0xde8fcf7db272208U, 0x912f2ffde0ff124U,
  0x180112e227e6f21fU, 0xb3103c1acddfda4U, 0xf241fa20c6f9fc3fU, 0x71dd8db090cfcdeU,
  0x1a08f0dc1118240bU, 0x160ef6cec0da43bdU, 0xfd2fe9192f0df11aU, 0xfe2ef3d7242e1266U,
  0xd8eee9c7b8e7e03eU, 0x10ad5f6bbde2ff8U, 0x27e8d5fe2ef03e22U, 0x97fafaee0b0709e0U,
  0xde283026201308f8U, 0x1b24f5f7d211e114U, 0xfb5deac6e540e544U, 0x8b8ebd5cd0b53d5U,
  0xd5c8ed20041c10d7U, 0xd5e61d04f104ce06U, 0x1fe7e6e9fdf8b3cfU, 0xaebde3c170dceU,
  0x3c1322ff08f11639U, 0xc62cff140f14d20dU, 0xf81248fbd9f900b4U, 0xf7d80e1a110defe3U,
  0xdbddfa50e12b33f6U, 0xdfee0415d818ce10U, 0xf1fdfe4619f9dc0cU, 0x3bee1df1e7dcedfbU,
  0xfcf10f261ecdd324U, 0x3c0fcdfd051bfc1bU, 0xf62c6f91319e0c7U, 0xf2fe20e328e724cfU,
  0x432b3e217d9d1dbU, 0x11edf806f7fff409U, 0x40f16152611ffe9U, 0xfd130eedecd9e11aU,
  0x3320f4ece7f3d720U, 0xd0acdf4a1826025aU, 0x6f81cd67f180a0dU, 0xfed4d9fcae0efbd0U,
  0x18caf3d604f2e10eU, 0xea2cf37fa9eed3c7U, 0x51d106404642d8f4U, 0xfaed1b21eb022e10U,
  0xfc18dc10d8ff631cU, 0x29e61824f2d046U, 0xd541e532e70efa22U, 0xa28dcd51d0313c2U,
  0x13ec0b23ec05c80dU, 0xea2b03180014201bU, 0xfbbaf0d4ec05133eU, 0xf2c301c40afa1ee2U,
  0x144eaf1f0202cf30U, 0x1e2119b21beaf8f1U, 0x3cc0448e9f1acc7U, 0xaee0a07251bc232U,
  0x5f10eed3b2d0b3eU, 0xe2de06d646f3e800U, 0x11113cfbbc082d37U, 0x183900ee3846ccc1U,
  0xe406b9c7f31d0b48U, 0xf307bf1ceb3a0316U, 0x11f72a2e08e8fa28U, 0x1273c417e3094112U,
  0xac6deac30cfb0318U, 0x3efe261ae8d7471aU, 0x17f002d386f4d404U, 0x59ea17d706ed7021U,
  0x3725d06706164d0eU, 0x3f26fe5d27c21500U, 0x1dfd2a060919e505U, 0x44b9f2cc03da0233U,
  0x3126eef33d13c935U, 0x46eb053d35d4b011U, 0x110494e819fd34deU, 0xe1ff391414d4e704U,
  0xd8081ed40903f90bU, 0xe0f42b03e1f8b6f1U, 0xd6f234df1e02e334U, 0xe0112118ec01ffffU,
  0xc030071e050ef4ecU, 0x4ee30dfc015f05f9U, 0xd1be002f9c7da0dU, 0xdd4a0b05d4bc4531U,
  0x32999000636ec00U, 0xe34a1bf5d3191cc2U, 0x1adf0d0d0d15fafbU, 0xf10d2efeb1ebf9d7U,
  0x11fdc2e32cf0201dU, 0xc9f7da0bea1d1b1fU, 0xfc1a3bf3ff08cf11U, 0xd4f81218cecde9daU,
  0xdce9f7e41d321b08U, 0xe4daf3391910cffbU, 0x19295a0d1607091dU, 0xe9dbd054164601e7U,
  0xf3db31f9d4d8e8d8U, 0xe1e19f3f58dff3cU, 0x24fab8f8e103113eU, 0xfa08f66016e1fd0cU,
  0xf6c1f85e12e4ca28U, 0x110d0d240dc7cc4fU, 0xfe3fa4e07ff15caU, 0x202cf7f2059010fcU,
  0xc8fccef1214d1130U, 0xeaf9dc042af91cecU, 0x13d2fc09edea06deU, 0xc92fce3bf30043eeU,
  0x16fb21230c14e4e9U, 0x2af2cb152317fdd4U, 0xa9c5092a23fba006U, 0xdbd80401082efaf9U,
  0xd11070be10eee17U, 0xda0706b9d3d94e14U, 0x1713fe1830d7d8e8U, 0x83a01bdcfdf06ffU,
  0xf3addae0d9edf11bU, 0x37effc42e8bb100aU, 0x1d1d05431d5b1816U, 0xd93ef307dd292f08U,
  0x1de0ce09da19cd07U, 0xe9d9fc1208d5da25U, 0x7e7c8e4fef4410aU, 0xc03e4e136f817d6U,
  0xf1c0a315eaf3ed02U, 0x22f83e23d7e5ede7U, 0x1c122ff0e82c07fcU, 0xf60aef0ff3e0e40bU,
  0x51fdc53091be800U, 0x413ffd10fe1f2d7fU, 0xe242f5ee4104e210U, 0x38ddf3c9d30ff518U,
  0xd612ecd013311c0cU, 0xebdd0dfc36fd111fU, 0xeadcadef01f4ffdfU, 0xff1240e6e8e623c8U,
  0xde131bf62f12d6e7U, 0x1bf221daf92ce112U, 0x12df0ce3b31cc7faU, 0x1127fce0dbe61607U,
  0xe609170df51e07b5U, 0x4d03f455ea31ee5bU, 0x4027fc261b24e1c4U, 0xe0e2292e0bc82be9U,
  0xdd19f121e00312daU, 0x32d9efe3dc0ffce5U, 0xfd9e2d28f2f810aeU, 0x32ffe0001c0c1d00U,
  0x1b1fdaf5e80107e9U, 0x1b06ee28f8d983e9U, 0x231b1df0040327edU, 0xf47e648e426bf07U,
  0xd1f31dc61719ddf7U, 0xee1000abb024c2aU, 0xbddac319e1f6d908U, 0x2eb1707ed0105cfU,
  0xf805f5e2cfe4ddfaU, 0x1111f5c903bb0efaU, 0x900abdf8e7b0f21dU, 0x5d2c0eea3af942cbU,
  0x2ed3150a27f3e911U, 0xf2faf62028f1f2e9U, 0x20dfeea6f722cb05U, 0x3d7f636490b24e4U,
  0xf515000d1de10714U, 0xec0fffe9e65003faU, 0x2036b8dfdee40628U, 0x1cdeea1c14170b1cU,
  0xf2c3cfda0ed7f1bbU, 0x96dfe0f5e31ae7efU, 0xc0311050942e618U, 0x22fd4e191628e6e8U,
  0xeedf0fde04ed063eU, 0x71f0b0c0037f5bcU, 0x7413cff08000d08U, 0xd4f5fa44dcd8b207U,
  0xcee6fff85bc4b826U, 0xee46091e1b0b1409U, 0xf7f8244802e330f8U, 0x31bc14e17cb33e7U,
  0x1222f813d625d6b2U, 0x91ae31a1e2a17f0U, 0x22cc2725d6430234U, 0xe9f125f15ffe0fd9U,
  0xef960c19cfb32520U, 0xd5e83b4820cef7f8U, 0x1202d1d20efeb2f2U, 0x1408311cb52bf40fU,
  0xc3e8e8242e23fdf8U, 0x40df388180d06e8U, 0x1110d4ffe6c2e2d9U, 0xb1dfa0533bf052eU,
  0xbf0cdeae56350728U, 0xe7c7eccdb1f830feU, 0xfad9fce9e7cbf8ccU, 0x30171fdd1ee9ed03U,
  0x38fec00ddc4cc913U, 0xf8f3b0d3e6e3b818U, 0x104fcdd1fd2df5f3U, 0xc5dcfe0ae43d2ff9U,
  0x1815293731d3d931U, 0x5103d53e24dde335U, 0xcdff39f8f818f8f1U, 0x2808bd26172be20eU,
  0x16d830fe031e1ddfU, 0x191be9e755aa2302U, 0xdd3feb161139ff03U, 0xfa180bd3e0a4bedaU,
  0xfe6dc0ce5c51db8U, 0x24f31109bce9c3fcU, 0x16dcd90c34e9680cU, 0x507ca3244f2141aU,
  0x3f23a9dbe009284dU, 0x114bf33796c90609U, 0xcaf6fd16150d0b3eU, 0x5f133621ffec1ef8U,
  0xd3ffe2360c2ff92bU, 0x43e925de1fd63cfbU, 0xe7f7012707d21f3dU, 0x130beb001de11d9dU,
  0xdb032e49f103eafaU, 0x170b2d0afd03372bU, 0xc2882df9050451caU, 0x121a511d0728e79eU,
  0xfcdfdf1637094815U, 0xc5f9311121810c25U, 0xceb50475fceb010dU, 0x26fd10092a072de0U,
  0x9030cfd0ce5fd41U, 0xe032ce35fc47050cU, 0xe4de28052eec3335U, 0x1f0239d5de32ef62U,
  0xe7d66d2ef31bfa13U, 0x12fe060704c91026U, 0xf5eb2eef33e7dfebU, 0xc601d6b80b231808U,
  0xf61b2629f6320a13U, 0xfbcaed47efdf1cU, 0xe6f9f610f509f0efU, 0xf325fe0c353cf604U,
  0xeaffe60ff70cb1f3U, 0xeffa1e10e2103ee3U, 0xdee3c6f647f01608U, 0x1fd9fa0ab616fedeU,
  0x4b1318daf40f03fdU, 0x4c31e24ef0128fbU, 0x2af01000def8d129U, 0x101cdbdf011921feU,
  0xf4d8fac9fbf22df3U, 0xe129d1f91f1745f6U, 0xd5f2fa3625c9c60bU, 0x2ad2f9eaafebffd8U,
  0xec26f815f9c71b06U, 0xeeee34fef10ee3e2U, 0x706dd290bb8d8e8U, 0xc9c2fac9fcd2ee06U,
  0xc0f0101b091101fcU, 0xe45a01da0ddf252cU, 0x12edfacdcf0603f1U, 0x2533c1faed64f7ddU,
  0x251ffe0106f7fc0aU, 0x27f625f6e2ecf7feU, 0x26103fbefc17fdfeU, 0xc5f9f700311bd95fU,
  0xd9e0fcc6010bf3U, 0x6b18eaf511e58dedU, 0xefef1dffb5f30f12U, 0x3160f1f431bfdf7U,
  0x3efb14b8e40514d4U, 0x7ffc53f371e3a46U, 0x1fb231df9630301U, 0xfc22382bf29d3121U,
  0x4136eae2f0ed2ed1U, 0xfc1118d711e4efebU, 0x214eb111ce626fcU, 0xeae913e30a09d9d7U,
  0xf1faf908e3f006f5U, 0x2af5123309f0643aU, 0x33edee9015fd0954U, 0xcafefd2ae842edf2U,
  0x2321d512fccdf6U, 0xeff9040de500810fU, 0xda381bf1d332effeU, 0x46104d12745facbU,
  0xf3f001f903d7190bU, 0xd6ef0e03e103b801U, 0x1ae7f3e01b02ebedU, 0x2effede0db125603U,
  0xfaedece424d9fcf2U, 0xd600ffe10c15e612U, 0xfdccf233e2040df4U, 0xd1ee082c25dfe3e5U,
  0xd38df191aedfafaU, 0x131600282a01ece0U, 0xc9db281008df0d0bU, 0xeeee21ddd311f00cU,
  0xd6ff05b7bd2f0ff9U, 0xce32d3faef8343aU, 0xf9a81afdf7ced3c4U, 0x2d91fc005d7dee8U,
  0xd49f3bd0609121cU, 0xafe1013c1ffc59fbU, 0x9615ee2fe51a14efU, 0xdadf460ff00127fdU,
  0xf3de08170922df24U, 0xf7e340050c159bbcU, 0xbe100907e1cdebe2U, 0x1204ff251204cd02U,
  0xd04f80ccecd0a08U, 0xcdfacac9e617d10bU, 0xfde11c06efefe70aU, 0x2409011031412c11U,
  0xb8d4ff393c0cdf2fU, 0xc81be8f967c233ebU, 0xd8e921f5380b680eU, 0x54e3fe41fce443adU,
  0xf2f7400e1925e41bU, 0x2c1302fdde021c0eU, 0xe326cadadaf5f9f2U, 0x1910f0f4e008eed2U,
  0xe008f80a1b2b1c01U, 0x180dfa01b91447c3U, 0x928eff34aead8c3U, 0xf04f4513fd032b12U,
  0x28e403f957f6f842U, 0xd4dee0c67fe8f802U, 0xf0c4cf2209e6d602U, 0xf05f12611e40716U,
  0x15d4df060439ded3U, 0xf6e2fc3bfdfa1929U, 0x2bdf9dcacdcaf605U, 0x2ae50916e5300706U,
  0x27fae305e1ef0ac2U, 0x90e28c4c2d82fedU, 0xea2a3703f50427eeU, 0x21c034060704fee6U,
  0x25f00ef3dc3107c8U, 0x16140db33d1cf7ffU, 0xd500d941230ef2faU, 0xd85b07ffccfc3cf3U,
  0xfed714fe2432f80eU, 0xe7feebd036a5f4daU, 0xfbe3f7e20a01f2cdU, 0xf4e505112606f036U,
  0xf5f81ea6d2f7e223U, 0x1a0cfa0eebcf0821U, 0x162e21f230191921U, 0xf6eafb13e06244faU,
  0x1e07f52ccd0f0b0cU, 0x141b07f2c7f3f605U, 0xed06c13b1ffce5e6U, 0xe4ff060c7d160618U,
  0xeafa3407e71adb2cU, 0xd85216ed0f10f222U, 0x3d28cce60a21db1fU, 0x270fd007153f4b01U,
  0xcc102e13080215dcU, 0x3b392fb53e17eaddU, 0xfbe8ef2c2bc135faU, 0x5fdeaeb42d3c4efU,
  0xf0d519aee8def8f8U, 0x2d1819213c18681bU, 0xd21250f12092fcfU, 0x1df8f21ff027ddf7U,
  0xecf233e1f09f432U, 0x194926b71ef340f6U, 0x302cdb10fcf81c14U, 0xdbf899010be406b2U,
  0xca1bd9d6e1ebbdc8U, 0x151b0610e254e9d2U, 0xe623efee080decf2U, 0x180c0b50c252effbU,
  0x33f3ab0bce0bcbfbU, 0xd4ec260bf6c01707U, 0xaff232ca526092aU, 0x13ef091005d8f1d0U,
  0xda53caf60cec0ef9U, 0xf13f7dc542c0104U, 0xfdec1307cc062343U, 0xc1c0049271ff7c4U,
  0xc5a65c03a0da14feU, 0xd1f5f4d306121ee2U, 0x151b2e122af6ed12U, 0x14f10ce7dd2a22fbU,
  0xf8fbf61bf9dcf6eaU, 0x30e3100dfa15db2aU, 0xd3052e0727ed2afeU, 0xf6f804b43c423dcdU,
  0xfe22dbdb281ecb0fU, 0x3ae3f5961f4ffed8U, 0xcd12d9f2f42fd70aU, 0xda1c1cde05211b39U,
  0x82b09d8ecbdf1dfU, 0xe3e501440aeaf4beU, 0x1731f4eb39e618e0U, 0x100fe8e14116210dU,
  0x2016ce1112e54b03U, 0xf3e7b9e51df5e6e8U, 0xb04ae3ee0e53ed18U, 0xa4f6c6d710c81617U,
  0xba11eee5fe15f90aU, 0xce5edeadc0a1ae1U, 0xb8faf10e0cf129a8U, 0x230af4af12fbc9d9U,
  0x3fcb2dfcfe08effeU, 0xdfbd3b0b53c4fe13U, 0x1a0c252937eafd1dU, 0x20ec002f1a3018d8U,
  0x2021120c2c29d4d7U, 0x1e0fab7fd1210858U, 0xf80e0b04fbd6d6f9U, 0xf4defc24f0b0c3bcU,
  0xc62921eff6bffb35U, 0xc92bf63203d0dc0bU, 0x2495f60b30090216U, 0x1211eefc2cdee9f2U,
  0xf1fe231bf50b0e14U, 0x1107f4f3fbf1021fU, 0xaf724fec12105edU, 0xed32da37f7fcccd8U,
  0xfc2c1048ae015e0bU, 0xf3defbc1eebfb1d9U, 0xcb10f4045dd5eddeU, 0xe9f7171cfc031bafU,
  0xe52b171c002d1326U, 0x3beef3d95ff6ddebU, 0xf5ed07e2db1215a2U, 0x37010adb24370ce7U,
  0xf6366b0feb10efbbU, 0xcb1bf61cf903f525U, 0xca2330dedd02c3f7U, 0x2130dcdc01efe31eU,
  0x17081b43294adc3dU, 0x115203aaf0efeff9U, 0x5607d800e00627e2U, 0xedc3f3c9d1f32ee7U,
  0x19fc6102f01214f8U, 0xff25140508f42616U, 0xaf00f3daec06fd1bU, 0x36b9133f144a4ee7U,
  0x492b0019eb23c4ddU, 0x190df303d13e19e4U, 0x2b35fc3edc18d7feU, 0xdc0ec313ff92527U,
  0x4a10e4ea1fc90ab6U, 0xf72eec084113e6b0U, 0xf4ebeb030bc3f139U, 0x141d3a02e443212bU,
  0x38031be923dfd8e5U, 0x1bfb13f6fd1dc53aU, 0x20dc0920e4fc40e3U, 0xddda3716373b07e0U,
  0xea0be6950eea41e6U, 0x3c2605c20ac6090eU, 0x2cecbf5f4fec3d7U, 0x1245fc0aff162e0aU,
  0xfc14edd82f0f14fdU, 0xeff1f5164f12366U, 0x2a17fafe31fe13f8U, 0xd055cee02b21f52cU,
  0x1e125cef6e31a1dU, 0xd5ccfef7f42464dbU, 0xede3efca1dda08fcU, 0xa9381300312f1b43U,
  0x230ed92caa12f646U, 0xf620f2e640d20809U, 0xf41d35cccafdc7c4U, 0x18dad23911391112U,
  0x1216f2d1e1f91616U, 0xca3848f60c211de3U, 0xe2061c06ecf1fdfeU, 0xc00ef754d558efc5U,
  0xeaf959dff04bf620U, 0xefed09f50d341c11U, 0xee2dffdffd0be108U, 0xf8fed11ccfb7fd3dU,
  0x1018fbb6d029082cU, 0x1d4e803f2f90155U, 0x63dfdbe244afe24U, 0xb2eae00cfe4322a7U,
  0xe3e71e010de7816bU, 0xfb2caf39461aea1cU, 0x1dace6062ece54eeU, 0x1114eedc19fad317U,
  0xc04ff155728fffcU, 0x2cfc000b0ad4ffb1U, 0x20fbe21c5a35e750U, 0xfcff000b07cd28c3U,
  0x2e02ccfb57f60ca8U, 0xd4ebf11124af0d05U, 0x3e3dd8ffd703fd6cU, 0x80f2dcbd33fffd7U,
  0x13decb2bd411ce12U, 0xd3dd5125dff7ed28U, 0xc0b727f8010f0902U, 0x26f40ebdd5ec01ebU,
  0xff0317062e9cc415U, 0x7e1a14251f22f21cU, 0xb81bdebd07cee900U, 0x33f4ec3b1910eddeU,
  0x20260a15051dee1cU, 0xd9c423b1032ff00bU, 0x48e9e14721010efeU, 0x6f4faf30a26c703U,
  0xdfd8c5e8f51bfc0aU, 0x341b342642e2ee0cU, 0x2808efebeee556fdU, 0xe4f3d82a2b081306U,
  0xcd52c6f8212bc44aU, 0xc4e321020cd011deU, 0x9dfc3237d4f235fdU, 0x20feebc01bf8eb05U,
  0x49200c1df8f018f1U, 0xb09feebcd030815U, 0xd205209de407e7ceU, 0x37030d25fd28f7cdU,
  0x19bfe1ccdabeeb05U, 0x11682103ef6667c2U, 0xfdece9d3f3f8fb09U, 0xcd9e70cf0e23c0cU,
  0x211e07012bd1d2b0U, 0xfcf02519dcf4c118U, 0x27ffaaddfafaec07U, 0x4b1fea00d407e3ebU,
  0x8e901cabff6f306U, 0x23b5150424ec43f5U, 0xd2162128eef5dda1U, 0x2f122c150851ed1dU,
  0x1cd6cdf017f4294bU, 0xdb0119e72109b1d1U, 0xccad74f0de0ff4dU, 0x1e2b151815e21209U,
  0x49ffd8b31804fb9dU, 0x1a0e282914f3d00cU, 0x222dfc2124f71134U, 0xd0f9e2811211f447U,
  0x1ffa3bf7c7d7d4e9U, 0x3df9b5daf6c1030aU, 0xcbd106fc21ee25fcU, 0xd900ec05f7e4dffcU,
  0xcee72e172b02f9caU, 0xe7f215f7190bff04U, 0xd7f70bd6e30cfdd9U, 0xe5cb0522c2e124f7U,
  0x2833fb1af11bfc13U, 0x4fe012206fe0a21U, 0xf25eee27062ddef4U, 0xeedc2de028e33407U,
  0xed30f9e32b02f505U, 0xf7ff260609f532fdU, 0xed04fdd4fb151b29U, 0x40b0d1bdd39d967U,
  0x4040183eecabe928U, 0x1000271d7b13071eU, 0x2c204dafb00dae4U, 0x200e01ee11c55e6U,
  0xd4f12af51d011effU, 0xffd9e92808c32132U, 0x18f328f4fe1b17deU, 0xe8e60fae310b1e1aU,
  0x40ae409e2170415U, 0xfe02f7d9e907f226U, 0x4f505e8124100c3U, 0xdffa06099af5e81eU,
  0x12b0ef001513614U, 0xd5d0e901161bd5feU, 0xfa06ebffc6b7da02U, 0x4b0de3084edae7ffU,
  0xe6d3df2e3c2dd8U, 0x3eaff3edc02efe6U, 0x1b0a1329fb281ddcU, 0xce3a02f3cffc0e18U,
  0xc9efff0e113515dcU, 0x2811e5eef334fc2dU, 0xf21615fc1a1e1e3aU, 0x13f23edd01ea131fU,
  0xfaf306f028201911U, 0x120d1d1e01fb35fdU, 0xdb0af0e7daeeee17U, 0x63fbf1233706ed0bU,
  0xb3e32cd919b904f6U, 0xc6fdde0815ebc6e9U, 0x3c072e011d09bcd3U, 0x1bf4c80323cfedbeU,
  0x1e6efdfc12bfe0cU, 0xf5f840f53eddf51cU, 0xe73f04d5f31d01d7U, 0xd0ebbaf4dfdddd08U,
  0x1de0fc1d14efd2ebU, 0x57fb1a19121ed006U, 0xeccaf026f51edc89U, 0xed0cdef1deb13f2aU,
  0x2e0720f1fe070eccU, 0x903efa4e8cb0108U, 0x32cffdfaeb280d9cU, 0x1afb1d06a20c35e5U,
  0xd03fb103922f8f8U, 0x9ee18f143c1d7fcU, 0xfde4e2d3ddfb1a13U, 0xd521e8d611371ddaU,
  0x2fcdd0da039e318U, 0xdef7090f230ee152U, 0x2f1b07e7f4dfdadfU, 0xf5f3bdf7fc0c4cfdU,
  0xd112da2a4c11f9dfU, 0x6deef06cf2c450dU, 0x17a704c9274de612U, 0xf814f819e70081e3U,
  0xf5020315f101e998U, 0xf742de12f50bd1d9U, 0xe5bb240b0dee001dU, 0xfff5e3f9bbfe0ec8U,
  0xd3e14be7ef03e4f3U, 0xf8e9d733313c461cU, 0x33052302c9ebd5bdU, 0x47e5bc0832fd16f6U,
  0xf72159ddf7b50b21U, 0x1a35d9330ff3e50aU, 0x3a62b41322eee4cbU, 0x50a2ef2eaf6dcd7U,
  0x282068fbfbf8b60aU, 0xfa03f2154117e4ddU, 0x1104230efaecf91aU, 0xe7d903c813cbda05U,
  0xd61d03ef1f4bf03bU, 0xdf071019e86d7014U, 0xede0ec0703e3e9d8U, 0xd9ec07060a26b030U,
  0xe9f735293039f2deU, 0xbf1de7ec05fae918U, 0x22daf0fa02d02706U, 0xf4fed2c4e238eaf3U,
  0xb90cf1f70f00c435U, 0xfd13250d1f04e60bU, 0xe70011afdecee823U, 0x1ef503b7080ae262U,
  0xd61344fd00011cd3U, 0xe4dded38f8250e0bU, 0xc7dc1dde06c8e4e7U, 0xced4cc0e0decd6e2U,
  0xdd35ed251decf4ffU, 0xf31704df40f6f400U, 0xfcb8fa0cfafa1bf5U, 0xf64110f2fcf02300U,
  0xf0cbf5052ec525c9U, 0xdde2f0cdcff4b1f8U, 0xfbcae02ef702e1fcU, 0xda01173ee7ea0650U,
  0xcb04d10921feac4aU, 0xd3b80f17fe1bee21U, 0xe61a16ece2fbd67fU, 0xb7f9d20c3a00f0d6U,
  0x382112eff4db070cU, 0x840001337cc41U, 0x9ebe9f4f13efb32U, 0xfc1b1018e22c21f9U,
  0xf2041335d8180823U, 0xb6e9ea07161ce80bU, 0xef1033afef91de0U, 0xdd0e31e6111b0a0aU,
  0x13eadded09fdfb1aU, 0x717c4e420de170bU, 0x11d3262d3f09ea50U, 0x1ccdcd013401c35U,
  0xe7e912da1beecd07U, 0xcdad095b27091fdeU, 0x34032720f2fff3ebU, 0xfb1f105d104f21f5U,
  0x91f0edfe0103ebcdU, 0x5dfe7e75426e0baU, 0xb36219fbdf06cd32U, 0x17f9260ddbeacdcdU,
  0xf5ff1f1f16b2d62eU, 0xf61af5f937c5e212U, 0x619e1dc001a15e8U, 0xc660483c061e0f08U,
  0x401d6d904ff0ffbU, 0xff2c10c02a2f0b0eU, 0x27fd00e10f191ef1U, 0x2e1ff1f3d70ec916U,
  0xd41409f8f2eafef0U, 0xdfec186d0eeffde7U, 0xafd8e2efd2c50abcU, 0x14140908c1f6e5deU,
  0x8a817feec34dbccU, 0xbe9f865f23cf823U, 0x42400321011b625aU, 0x2f1cfbe7f1b70814U,
  0xff090121561645f8U, 0xfa58e63a2019ee23U, 0x2ca14fdc4e7043fU, 0xfa65cd1d2bfac8f1U,
  0x30fbb6f71103eefbU, 0xfcec2af70f32e1d7U, 0xe5bfe0271626f11bU, 0x12fed8310a18ceedU,
  0x15f7e4d31e1214eaU, 0xe2e3d8e7df0e54e5U, 0x1d02c017e817066bU, 0xeec601c70416ebffU,
  0xdd0813052081ef17U, 0xebec9a373ef2fb35U, 0x231b291114dd1dffU, 0x151116de1d160601U,
  0x4ec194a0505d002U, 0x23e6ed1e0a011e42U, 0x3d0220716e6fd21U, 0xeb0110f218480c06U,
  0x18ea09e2ff0bd8d0U, 0xd21be1210d001dfeU, 0x4ecfe905f7ed0029U, 0xf214ff2af22bfdc9U,
  0xfbe305fbf7e6f75fU, 0xe7110f39d500d532U, 0x18d2fd3c151d0417U, 0x59ee161990f21ed4U,
  0x3209def2f6f42210U, 0xd920e60bc7bd20deU, 0xf10d271eee29f2e2U, 0xffdaf1bafc481d14U,
  0x22fde20a0fda05b7U, 0xf208c0f79fefef1dU, 0xb8eb27ebde2c0bf5U, 0xf4d1d4eb05f5f8ebU,
  0x44ae253013201821U, 0xea1922fd18f929ffU, 0x2dfa193fd118194bU, 0x280326350e140c09U,
  0xea0aeeeace1edd33U, 0xd905f705b127e656U, 0x193dd50a09f13efbU, 0x1ede0121e4fb0629U,
  0x2ef707f21fdc0203U, 0x352b43a8f3f9dd10U, 0xece2ddfef209adf5U, 0xf4f80f2809023720U,
  0x10fce5f3fe2c2b1bU, 0xbc05202528ddf118U, 0x2e1d1423e5f6f905U, 0xb11c52cebb0e03U,
  0xdf2527f343be45dbU, 0xd806f1cf14555700U, 0xb6011ff7e524f7c4U, 0x17111cfbb4ead6e7U,
  0x617cffcfefa1232U, 0xdfe315f2eae90ee5U, 0xfbf5211cb702b1U, 0x122cef10ebfcf5deU,
  0xff0ee531f05eddeU, 0xefbaf95d1bc8ec09U, 0x31d1d410cf18f4f6U, 0xafce5072e1502d6U,
  0x3dbf3f8272705e0U, 0xd3f02110d8000b17U, 0x19d5cbee671c0b15U, 0x311f00051df222U,
  0xf2fc0b103603063cU, 0xf6ef04c308f3fc0fU, 0x2d1612d805d6d43cU, 0xc700e7f6ff2ac6f7U,
  0x94915eb07281018U, 0x5d703ddcebe24efU, 0x9052f08b8dfe916U, 0x3ddd1ae213cbf021U,
  0xe028d101fce5f021U, 0xf95341f0e8ec2006U, 0x10b1dd9faff220eU, 0xd917def507eb1d39U,
  0xdc44d21040edf8f9U, 0x14031c1305efef24U, 0xfdfb01ea1104dbedU, 0x21d3ddfb0318cd01U,
  0x71fefe0160eda1bU, 0xf30208f8201aede9U, 0xec26043011040b1cU, 0xd10df8f7e4fb00c9U,
  0x104f3f6d2c31ce1U, 0xf216d10309eb00d8U, 0x712f1b4cc1002dcU, 0x1ddb12f0ea20ed3dU,
  0xe922e71223fb033cU, 0x1f241bf51ed9ef10U, 0x1f082216faf1f402U, 0xb2032a211e06ec05U,
  0xf271c0cecd8ec54U, 0xf2f2f422f400ddf4U, 0x310f404260605e0U, 0x130803e01ef63ff1U,
  0x15d831e31100f825U, 0x6df00d9fe10242fU, 0xe0132403daeef4f4U, 0xe220fd0df2d0fd22U,
  0x2a061d45f7db00dcU, 0xefc1cd0505eb2de6U, 0x11c1fbfce75306U, 0xa1906f6e3ffeb0eU,
  0xc6f203f0f41515fbU, 0xfd22052314fa03eaU, 0xe90f300ada1307e9U, 0xccf2f41111252fedU,
  0x1af81e1e0d2824fcU, 0xe217e8050434f926U, 0xe011da1a1cf5ebe5U, 0xa0a03fef37fda0aU,
  0x1a3f28f60df6ef04U, 0xf2e1f7bde3020ffdU, 0xfefa0d15f324e6ffU, 0xdfb2f1316e5e3ddU,
  0xffe6efd3e7efe652U, 0x32027121f261bU, 0x5e1f0f49321430d7U, 0xe0f347d5dfef0eceU,
  0xf223d80efbfbff09U, 0x1027d6d7bfc3eb22U, 0x2706c1f9c7ed3c16U, 0xe91ae9130cbfcaeeU,
  0xb6e12e230f3fbadcU, 0xf8dfe21404ff03edU, 0xf4cbd0e514ceeefaU, 0x79c17f0f2e1aa27U,
  0xb828120edafa25f5U, 0x21002e8fdff3408U, 0xf427fbf4da05dafbU, 0x191946f013ed4602U,
  0x6c40c31e72b0448U, 0xf8e0b8375a241ffdU, 0xed3827f8f20d36ddU, 0x4a9c111507232eb9U,
  0xe4ec32f4faf9f429U, 0x1722b8bcf7f631f3U, 0x1adafac8de29d510U, 0x42fce326d99919f9U,
  0x5f1c40af512f2fcU, 0xfd3bd6ea0ef81735U, 0xf70df6f6f4d12611U, 0xf92e21041a39dec5U,
  0x61d446ec2ec9ceddU, 0xc63c1ec5ff2afddeU, 0xea00fb1a280000c0U, 0xcfffdd36eecdf001U,
  0xe3cbef14d2c314fdU, 0x615fbf72bf0e82bU, 0x27c504ff7ffe1eb5U, 0xae607f710e9dd03U,
  0x2734ebf4d311271bU, 0x9df61a0b91032ef5U, 0xdfb17e50628fba9U, 0xfbc69dc01125cdc2U,
  0xebf0edc6e9e80de4U, 0x14f426214439461bU, 0x816111a13e000d1U, 0x30d3fcd829dafbe6U,
  0xd0f0dbcd210c0cf8U, 0xe9f1143de321fbedU, 0x4d31a35314c0dU, 0x114f60cfbfb0f2dU,
  0x3002142ba71e10d5U, 0xf0ff10d1fe02d9eaU, 0xfaf00f3303072a13U, 0x4dd9f2f12e25ef07U,
  0xe3e202240a311115U, 0x50cefeb8cc13fda5U, 0xd9f414d80bed0729U, 0x15e0e8dbfde5ffe8U,
  0x12e4fee534cab3ffU, 0xe0250fd4ba240e09U, 0xebebcbee14111117U, 0x3acf2a0b0db6abf6U,
  0x17d72431f6eeca1dU, 0xbc062f14202ad91aU, 0xd939f73318e2f8f6U, 0xe224b821ebf63118U,
  0xe04ddeff3dff5e3U, 0xe0d9fb1f2bed35ddU, 0x33e6170bcc0cfd1fU, 0xf6e51e111608c8faU,
  0x16d23bbe091249d2U, 0xe0fb16011f2cb610U, 0x10aef3f1de02f5ffU, 0x17172fdcfaaa0aeeU,
  0x192126edf302fbfdU, 0x2447fcda09c1c5ffU, 0xf9e4e2c8e2daecdcU, 0x1029022afffef10cU,
  0x6f736d30e261de3U, 0x2a0909f626af190dU, 0xccebf9122fed09e2U, 0xf1bb34051907e00fU,
  0xd70b001f0eff54d8U, 0x3e70aaa13ca1b2cU, 0x4df52bfff6e61707U, 0xefdbd4d620232800U,
  0xf40124101214fcf4U, 0x1e2ff922fd040fe6U, 0x1df1e9eee7f1ffeeU, 0x2afcbadf21491630U,
  0x45fde8d3d002d506U, 0x14eb17f6810138fcU, 0xd16cc631a5cc2f3U, 0xb05b234fd39fe22U,
  0xb04e239fb29052aU, 0x17ef2bde33f60b03U, 0xeeedee06ff09fdd0U, 0xe6e7eaf500c8ebbdU,
  0xd3f6da1df6ecf7d9U, 0x18ecf704e9fd010dU, 0xfef3c7d6ce2afadeU, 0x101ffef4ef080024U,
  0x4cef120dfdc90605U, 0x230917d1e6ff2417U, 0xf4071928e9ff05e3U, 0xd636de06290ff8fcU,
  0x3408090ffcecf1e9U, 0x261427e8ff381ff1U, 0x7f6300714f9d716U, 0xef405d0cefe9f418U,
  0x2d31fefef4211206U, 0x32e72e1d50cd13b6U, 0xf3c3d8cb1511efd2U, 0xfbd80907061be2e6U,
  0x4060dfde9039af2U, 0x26e9cdca093a19e0U, 0xa3aaff605e3040bU, 0xf51cef0ad3f60edaU,
  0xf241f3e1f73113c7U, 0x3f9df060014d6d6U, 0x6d20719d11538ecU, 0x320a2227d4f91affU,
  0xda101a11e6cc07e5U, 0xf12fde1e01c0f60fU, 0x63a14f428cf40e6U, 0x35161313c5c31dedU,
  0x1418ed2becebacf4U, 0x70117ea42f2fcffU, 0xf9ecec1931f521f4U, 0x1df3df123a1722e9U,
  0xe513e00fe00f06edU, 0x43d1e00dfd13e7feU, 0x15d717ede8f1fff8U, 0x25f9011f28dc1511U,
  0xbe922561e21ee09U, 0xfffef3f4bdbf2318U, 0x4140ddf51ffd1122U, 0xe1180738febf2025U,
  0x21e8b5e02119f5deU, 0x270a05ee18f737U, 0x179f1f1102241b00U, 0xee0cf40700f919e7U,
  0xb1cb13041be522f2U, 0xf80c06d10fd1f8d5U, 0x4214f515d61417dcU, 0x4e7ea19f5d21a19U,
  0xe503980affcc4ce5U, 0xe8fd07f529fac509U, 0x2f8ff000e0dde15U, 0x22dc66de15ea1519U,
  0xee2fd5df19f6f7edU, 0xe606e11306f102e0U, 0xdf944fb0322df38U, 0xd5e6fee617fbf0faU,
  0x18fce61428d8f0f9U, 0xeff3ff0601040b26U, 0xea05efce4b4627c5U, 0xf80a3e3f06c230fdU,
  0x3018df03de062e16U, 0x15dbfc54191728c7U, 0x75a4804101706faU, 0xe3101049f7020bU,
  0xf13b13fdf4d91b18U, 0xb6fdc4290f0cdcf7U, 0xc3e3f4d5041c2af6U, 0xf709f90409050c02U,
  0x1260bd21324280bU, 0x2807e01c063d48d6U, 0x6f40ac5de151bf8U, 0x2cf237e3d01a31d3U,
  0xf8021cff1f270133U, 0x2abc1213df212243U, 0xee7f30f0205edcbU, 0x525150ce349dd13U,
  0x28f4fae5cb0e09ecU, 0xfc0ac819dd34e9f5U, 0xca2d1c1ffdf5e9e8U, 0xf3fe0452c0d5f6eaU,
  0xc4e5cdcedd19fbedU, 0x8e61cf2ce00f63bU, 0xbf20fdb0808290cU, 0xf9d2f0fdc22b37ecU,
  0x28fe06b11df014e7U, 0xf325ea37de0b210dU, 0xe9fa0ee710f05405U, 0xf90ff2fe4845f5U,
  0x35ccedf6e3dbd2f9U, 0xdab4ec2345e62741U, 0x415d22906f111e1U, 0x8211e4ddce2f907U,
  0xca041ae50af4b81cU, 0x1ce8e6f4f0031eefU, 0xcd9f7fab925e77fU, 0xed07dd300ee01bb6U,
  0xf30bccc2ddb2f1f2U, 0x26e7bab915c60c0fU, 0x91e16e9b4e4370cU, 0xcf28e051ebf51df8U,
  0xfdcbd5da0403e8dcU, 0x1814ff40d62821f3U, 0x2dfd2a47dafef529U, 0x1c42c214c5d71ff4U,
  0xdee1f0bfc533804U, 0xf42070cfce3fe22U, 0xd2ea17380c191cfdU, 0xd80a2375f3432ef9U,
  0xeee7b855eeff1febU, 0x3209daa30dfcf426U, 0x20dc2228e6105212U, 0x3e255e07c0322103U,
  0xebb0303f6bddbfaU, 0xd53ccfd69c15f4e7U, 0xde4e1e304001bddU, 0xdcdff3f8421d2a2eU,
  0xe0cbf8f330e3bd1fU, 0x1a2efed9fbda33c5U, 0xf8103111f3e112c6U, 0xebd9db2113fad3ffU,
  0x35000af1f11b03bbU, 0x1e37091246db3a04U, 0x14f4b11de2ed04f2U, 0xe5001fbbf8306826U,
  0x5bf11505fa67ede0U, 0x22e2eefbcafb14ecU, 0x3941e3eb1bfc07f2U, 0xe3eefaf7ff3ce52dU,
  0xa6e50e080fe51d19U, 0xf5fe1d2bf6433bf6U, 0x21134efee1202e7U, 0x1a41fc13b4cb1c7fU,
  0xf9fc0a0c09f80bddU, 0x154d4acfd613ab8U, 0xbe9d9f9fc0914faU, 0xf00ecfac05fbfc44U,
  0x170a29e7f8dddfbaU, 0xf0041dec1d1715ddU, 0xd9ce24dd09e306d1U, 0x1823e1d92b103209U,
  0xdb0734faf1f038f1U, 0xfd46434e9b43637U, 0xddfe25e005d5f4feU, 0x2d2242cbf2fecae7U,
  0xd20d4b16cfd8d331U, 0xead760cbc751eed9U, 0xa14f1ddde1615aeU, 0xfb40ded80a073401U,
  0x2de3e2fb1af701ebU, 0xce00ee2ad163e429U, 0x1b191bebe83ce9fbU, 0xcdf2ffed822dbbd5U,
  0xfa33ddcd24df2e32U, 0xefd1c92747e4e12cU, 0x46dfd054c7b20b24U, 0xbd3eed554b0fcfdU,
  0x4fffdd01e638eceeU, 0x1213cc3606deffbbU, 0x900fde758e6f0eaU, 0x340229d3dc22e93aU,
  0x101db9efc60ceccaU, 0x4fffc03c3f608f7U, 0x39ddf9251a14031fU, 0x190013f0e6fa0aedU,
  0x29f60d38ec1c0af9U, 0xefd907dd08e20ce9U, 0x6ec07f5f3f9d71cU, 0x22ebf3cd051911cfU,
  0xe5180fead1d4fc1eU, 0xf9da13e20ef7132dU, 0x19f60ce207f1ff1bU, 0xe4f6f61513ea0f0bU,
  0xbf5d8d6fc19daf8U, 0x13f2eed1f126290bU, 0x251ce609e1dce712U, 0xbccf3fe141d2916U,
  0xf7b8e236111bee0dU, 0x8ecac24db26f9ffU, 0x1807f7fef1c440edU, 0x3bfbecf1a405edfcU,
  0xad5ed32e8dee8a3U, 0xf3fc42ae5ff233eU, 0x3f755100f0cec3dU, 0xd90102fb08ebd81bU,
  0xdf05f7f4f61e1bf6U, 0x26705f60bee3d03U, 0x81ffee0e42e0f08U, 0xdeccfa061d6613cdU,
  0x1e4d04d3f371fcfU, 0xcce3531fedd0636U, 0x16f646eaffff00d9U, 0xebe51708d0f2f5a1U,
  0x3103f8bf08ed2725U, 0xebc7eb1a04fcdc4dU, 0xfe3d7f2b0ddb18ddU, 0x1ff20d44b8dbe92fU,
  0xdf08220bfff6dbb1U, 0xdece0c4dd11f00f9U, 0x34000cf8fc0cdd11U, 0xf74233b91c3018e0U,
  0xe53c2af9e0250adcU, 0xc3f511f7f2fbdc1eU, 0x1dc0fcfaf6ef0af1U, 0x1a43e938f4dbf413U,
  0xee24f52223f4f52cU, 0xc15e7f71be9d00cU, 0xeadbf9f3ded902faU, 0xfc17d30f1c1e1327U,
  0xd20a2ff3fee00fdeU, 0xe806c4eef5e81c29U, 0xe42d623312ee2a37U, 0x1be40a1045022217U,
  0xf20cf004f80407afU, 0xf6de09d816f8f3f3U, 0x14cfd117f612ed07U, 0x18ebd5e90650231aU,
  0xeaffeafaf7d84ce7U, 0xda29e8004937e9e3U, 0x3611ea142d16f82cU, 0xe92fee0a0bcc3efeU,
  0x11fe05d7d90f25f2U, 0xf605e32312042df5U, 0xd5fd050cfff3125bU, 0xf041fe124613d008U,
  0xea032dfe27360dffU, 0x1afbeafd170dfd3aU, 0x2a0ae82c2ae206edU, 0xfee7121f11dd1ce8U,
  0x19c92cefc3ff1403U, 0xb32124f1f1130652U, 0xefcdf610bedeec2dU, 0xb31ce5fbdce625U,
  0x1af4e1e7ec311e1eU, 0xb5fdfffb0efd22dcU, 0x4c3fd71902f2efU, 0xdb0ef44af3051fU,
  0xf8fc1f0dfd28dfecU, 0xff03f438fe0ee8f9U, 0xbe22e8d6c1060557U, 0xe3d31bdb05dde5d9U,
  0x20fc2fc12d210e1cU, 0xfc0afc01c315f1fcU, 0xd20b1c04d60ef037U, 0xf400e93f12f7fad4U,
  0x19f8f3052eccfb08U, 0xfd44f7ddff20f5ffU, 0x2bc72ff7e4f91608U, 0xd4df15defc030e21U,
  0x2b02df1eeecb09f3U, 0xf9ded3f8fde5eff2U, 0xdad6d4f4e72d2147U, 0xe41501e4dffd17e0U,
  0x28d8ff06f4e306faU, 0xed2b18d4cf05cb04U, 0x16d50205f8011ae0U, 0xe405e3ecfbdbdbebU,
  0x4eadd0efbe5010fU, 0xf6e556e40df4f4e8U, 0xfdec2e15d8f5082cU, 0x16e11ccafaf7edf8U,
  0x6fe24502ad2e82cU, 0xb8eb03f91442002bU, 0xdb01e981ffe30c0fU, 0xf3edb5ededd601cbU,
  0xcce3f813121ad81cU, 0xf8d50200da17b74cU, 0xf2142e42fd141f07U, 0x1b09313929e4e1d5U,
  0x5112ce82af00c17U, 0xba09f71e1c0ff9dcU, 0x19fde7e302e10f41U, 0x14fd2e0699cedde2U,
  0xea18d011115ff3faU, 0xf71ad8dc0fb622dcU, 0xc48ac0fed17cbf4U, 0xfc41ad24221a0d09U,
  0xee03cfdff2f4da10U, 0xe7ead124ecf540d2U, 0xe4c9332d1429f7fdU, 0xee2b240ffe28101eU,
  0x1510be05080b2500U, 0x340eedcf27fde503U, 0xb206ee9ca4101eaU, 0xfbfc3b01ddf61121U,
  0x1bd3d63b3101181cU, 0xf638eedb151df82bU, 0x1545f009cde6f803U, 0x425381be9d8140aU,
  0x734fae5c4070105U, 0x4a0440fce92f53f1U, 0xe70c170167d0d80aU, 0x20e5e7dfd9fdc0b6U,
  0xfb28d91ae3feb71dU, 0x604d65011034102U, 0x21cc013ac2191f3dU, 0xb7fd30c114e8eaecU,
  0xf2062a09e6de0d06U, 0xf7390029cfcccb04U, 0xe1bfe075e0fed604U, 0xec11f72f52e32104U,
  0xd1b1251b9a3b062aU, 0xef12d511de01edf3U, 0xdd2706a54c3528b8U, 0x19dbf9f62e4de2e3U,
  0xdf3b0551412a3f3aU, 0xc28a6231b1ee2dfU, 0xe6e7d52b09f329f8U, 0xf373c6fddbe6f1d2U,
  0xb0f0c51af9f5c0e0U, 0x2702ce10f0ee1eedU, 0x2ae84709f8ef0ce3U, 0xfbd8f0ebe8e833d4U,
  0x1f10e0b19fad5fcU, 0x33f4eeeaeb266d16U, 0xf841240f1c1c0883U, 0x4cbec1af942d1d8U,
  0xd2e121dd4146eff6U, 0xe0f8fef3ffd5e627U, 0x102e20e8fedc3ef0U, 0x5861fed7defdf1bbU,
  0xd3bccfce5dfa04deU, 0xf0071404e4faf0e2U, 0x1845f310cb07f709U, 0x13d2f80122510addU,
  0xee1026eaea1b1065U, 0x9126dde3196c11aeU, 0x11270d05f2fc00cfU, 0xe9210bb304c50cf6U,
  0xd635e316fd15230bU, 0x14130be435c20451U, 0x3f32ffdff1f40ac8U, 0xadad914d8e4bc1eU,
  0x13b7034510fb14f3U, 0xfff8acf53528d005U, 0x2ffa0ed6d21e042fU, 0xe7f81b13ddee7f09U,
  0x6f32b2ef4022f02U, 0x9fd940e4b690d6d5U, 0xfdf91bf7faf6b609U, 0xd62eee310a152b1aU,
  0xd13c09e9edf8d031U, 0x18d90630fb36100dU, 0xe006f5c20d27f9f9U, 0xf61ae5e1de0ec605U,
  0x2ee8fcea1bfbed17U, 0xb800e7201f13ed06U, 0xe12832da0d3f240aU, 0x710170923e50016U,
  0xd9eaf90bed00241bU, 0xe6e7f253dbfae9f5U, 0xdfb09c5c400ec7bU, 0xd1f4e7e14825e42cU,
  0x44f601de091911d1U, 0xfffaf5d01be83211U, 0xcb18f101d7270616U, 0xf9d3f711f0ddf804U,
  0x130912d4fcd900f8U, 0x51805a9e025f8f2U, 0xd61d01fcfb2cd523U, 0xf6d7ced3d714f60cU,
  0xc424ce0823811dbcU, 0xe319ef1c2216effdU, 0xb64fd72d36fd0d40U, 0xf02909ee3be2b5f8U,
  0xffe7fb110e2ce703U, 0xf82e1414fffe271aU, 0xa531f170104f509U, 0xeed2fee7eaff0813U,
  0x42dcbff05c1d9feU, 0x15ee0b000b15f613U, 0xfe310b02cf0b22e6U, 0x391a23fbf51cd88aU,
  0x1222be1814d4fbe1U, 0xe90f0c1af210e105U, 0x1ff006f2fceeeecfU, 0xf0ff162ecb0aed42U,
  0x1dd50fe6f10014f4U, 0xc9140edf171018d4U, 0xe81bdb0fb934debeU, 0xe112bd14dfe2e7dcU,
  0x3a1710ff11f329edU, 0x182b16fefb0214fcU, 0x16ec3ee7dd171d31U, 0x2beec4f81d23071dU,
  0xf4fceffa09e817f0U, 0x1e0fc41d19f7d804U, 0xf2ec13f4ff1718dfU, 0x2c145401261d0fc7U,
  0xf0306e8df2b1c35U, 0x22d1e0e3e013f127U, 0xdff8f8ccf74f21f8U, 0xd0f4ef271ff1ef02U,
  0xe50cf517fdff1b4eU, 0xb80dd703f8053707U, 0xf83011c918002802U, 0x2415f30ef901edf9U,
  0xf62703def60a0821U, 0xd021ecf92efdf219U, 0xd30ef7e63bfd02cbU, 0xa1b241ee1f6e104U,
  0x1a0f0c45bee81c43U, 0xf52af2f7f12de8efU, 0xe2de9f70d10e2e7U, 0xf3e6e8ff06f309efU,
  0xf7ee0efdc5fdfc11U, 0x12eb0d5514f33123U, 0x43cb337dfe6e514U, 0x70afae8f1ee4739U,
  0xb16d41dfe00c001U, 0xd10510d8f5dee10dU, 0x176b18e2e432db0dU, 0xeb062ae6f2d11d17U,
  0xfe0ae24418113517U, 0xcf493e21fe131ce7U, 0xd9ee0b29d60b1020U, 0x1df7f30841f5030cU,
  0x1d10e7e70246fcf8U, 0xf005100f0ddb2df8U, 0x1912bd184efb01feU, 0x16190f2bedd319dfU,
  0xe6f033112edd01f7U, 0xf8dcf0e4f4fcf8efU, 0xdaff23f7e0d90aedU, 0xc7172ff50e05f9f4U,
  0xfe1d221c01170204U, 0xf519121edad81b05U, 0xe931e3cbef2feb07U, 0xe4f0efeb0025fdf8U,
  0xf7edf0e9fc20ee06U, 0xc2e4181fd1c90807U, 0x1bc0f2001320cb0aU, 0xf53cf9feeddd280aU,
  0x10f1faeef11df7deU, 0xe5db233b011510f5U, 0xb304ffe3e2fb2b03U, 0x1928e403fdebcfe0U,
  0xedfbe8fdee06f402U, 0x2182f2a16e2105bU, 0x4eca5301acb1c27U, 0x11a0fb1f07bbe90cU,
  0xf9e1f12afaebe6eeU, 0xea19120b13f53854U, 0xb1ee03f1ca210efdU, 0xea20013d29091401U,
  0xc1f908fa0ed3f27fU, 0x62a14f7ef0f0aeeU, 0xb2316f409ef06baU, 0xc1103308f5380fe6U,
  0xf716cb4ff4ed18e6U, 0x3824db2000f11fddU, 0xfd023c182e2e07d8U, 0x1505f5f718f3cf06U,
  0x12ed28f9090112e1U, 0x2c0bf304d1051703U, 0xe293c1125dff5d5U, 0xf22d4bdf26f5e6ebU,
  0x347d31d020521d9U, 0x1e25bafcd5299ffaU, 0xf90709040c3627e0U, 0xdffc07291bea0c09U,
  0x1c14d920f608000aU, 0xf4cb24e42e0fd2f8U, 0x31fa1e20f90adf01U, 0xf8afea0b23ebd5e9U,
  0x8cfe0dabe4240dU, 0x3e5296d27d842cbU, 0x1e1a0d0d10d7c00eU, 0xf3e01bd7c4113d02U,
  0xbfe9f311fba315fdU, 0x150de895ef0604bdU, 0x2104a1df514cc08U, 0xc90def26e2022715U,
  0xf5f9ec0329fcb6ecU, 0xf10060915eff419U, 0x16ded3d9fa1aebe9U, 0xfa03141e3334faU,
  0x2bdadbf8003d1e3eU, 0x2ce8021d0614f12aU, 0xa4124e5fa0d3116U, 0xdaf30206300207f7U,
  0xded4e921f0dae51dU, 0xcf1110d71efd9636U, 0x9592b2df6e9fd1cU, 0xa33d6ed0431fc1fU,
  0x391120aae2d15cbU, 0xebc5fd15d91535e1U, 0x661fce4c170ff9f6U, 0x28fef609441a2defU,
  0x1907bec417d8b914U, 0x2d1703eb003209d4U, 0xfcc56d17e9ed0110U, 0x828f2a3fee4eb00U,
  0x4071ad7fa1e01cdU, 0xf36d0d03a9e92904U, 0xdc270bd4170c165fU, 0xc1f6110b1b34b5c4U,
  0xe808443429dfb9ffU, 0x26151c3037c7d115U, 0xf3e6f8b9f7272706U, 0xd100fb1f020534e5U,
  0xf1a8b104eb0ffeb2U, 0x15ff041fc3dae512U, 0x19f209fed61b0602U, 0xf51ed5f80bf5f60cU,
  0x1f0f14f2f20407U, 0xe6e208dc37ddde19U, 0xf4c01c03ec3e22f0U, 0x344dff24ec04daf9U,
  0xe223fc0ba239d5d3U, 0x1f6300402d6a60bU, 0xee18f4e304fe0981U, 0xc5f90f21ca2cfcdaU,
  0xe70bd8cdff38dafdU, 0x31173a2addeda1e3U, 0xf424fb121e02ecU, 0x11210d222d0e3dffU,
  0xc8ec3ffefc10fe0fU, 0xc2f0e2fceefb2c28U, 0xdb1a05ec0a09eac8U, 0x6e10120fe0e05f3U,
  0x14331ad0fd1212cdU, 0xcc1b1235ff220fffU, 0xd0611d14e716b826U, 0x13f9e9f466dbdc2cU,
  0x44d3f4f9f0e4a8U, 0x330002e90204e3f2U, 0x320bcecdf400e50dU, 0xd9032fe80bc2fe24U,
  0xe45ae7f708ea12dcU, 0xd93031110fe8041aU, 0xed26432e16f80e0dU, 0x8f506e21fc919f0U,
  0xf1e93907f406fd16U, 0x37ff1110e8992a18U, 0x1630010321ee360fU, 0xfedd092b9e0015a3U,
  0x1504040d19fcdd4cU, 0xafb1bfcf0f8132fU, 0x1bdaf3f8e7c5fb0bU, 0xff2dd033591eee03U,
  0xd916ef02cd1af617U, 0x6306c9081906ea21U, 0xb01e6fa28131830U, 0xd1fec20d0403ddf3U,
  0x22fab6f2c909f042U, 0xc920c1c0f92f3008U, 0x6f6c01518edf7a9U, 0x27d0d4d6021c12ffU,
  0x30dd503df40bf908U, 0x20f200d51deeff03U, 0xda502354eefaccf1U, 0x6e0ba13022213c4U,
  0xf7d30504df1ea6e4U, 0x18d2f7210808bdf0U, 0xe519d176b92a02e2U, 0x1203fff152ec1c3eU,
  0xb244d21d41afd21U, 0xaab515ec052ee7efU, 0xd453af734e1b51eU, 0xf102f9e360d3f405U,
  0xc1032fe611d64039U, 0x313609ecd60df8ebU, 0x1e004421eb1cf854U, 0xd3ca08f1d212eaddU,
  0xecc34ed450dc419U, 0x902304bd6211549U, 0xce107f50022c116U, 0x4617a6fe49e6f0fcU,
  0xdedfe628dec0e90cU, 0xbfafbdef8feae33U, 0x41f3d8c8a9d47c1bU, 0xf6fe33d6f8ec09ddU,
  0xd4fd22d0c9d4f8edU, 0x1cc9bed449f01d33U, 0xf1e4fedf131fe200U, 0x27e91a2e31240817U,
  0xf4f34626dfcee23eU, 0x330ce69b05d704e5U, 0x2b47cbdf471429dfU, 0x222f510b9f2f82eU,
  0xb811fa2024c0430dU, 0x8480b16e9f2e220U, 0xfedac19cfd1dd92aU, 0x35ce1a1ffdeb1547U,
  0x24f7090fee19e8deU, 0x210f3dfef2c4e7b8U, 0xbebe9efb181d3010U, 0xfceefefe0d04fdccU,
  0xf801dad417f909fcU, 0xec0bcf0715fb4ef3U, 0xe21805c9ecf2e48eU, 0xee11f9e70e05ee15U,
  0x14174f0104812021U, 0xcbdbf3e8f513529aU, 0xe807f8e9f8ff21e1U, 0xa2ff22f152bfcb2U,
  0x1eebf7100a03cf46U, 0xb10a2915f0e13c14U, 0xf5d82802d7a1eb03U, 0x9d62cefd13bfefbU,
  0x24203e23d1d42716U, 0xed1407d1f9390ddaU, 0xf8e9cd0915e32dd0U, 0x4bd667c008eb320dU,
  0x70306e41a1700eeU, 0xc02cc21e06fdef04U, 0xe0e6bdc4b8b7fe28U, 0xe4261dd3db181627U,
  0x22d6fbde2002ec07U, 0x221105c8f443dabfU, 0x1527df2509cdef16U, 0x14193917100cc109U,
  0xe6fbce35163a16e1U, 0xb14d90411113ddcU, 0x43f70f4020e3e2e6U, 0xf624e836e210d7efU,
  0xe729c307b72ac72fU, 0xf612f6dcff38f2f3U, 0x39e40305e536f9f9U, 0xee9f427df29e81fU,
  0x21e3cc06253b0406U, 0xaa1adad1d64d08e9U, 0xefaee4124380ecdU, 0x1cee16ebe7153e42U,
  0xf50304dc04fd0f08U, 0x13eefd2ef8d034f1U, 0x2fe2fc03ddc4ce4aU, 0xf302dc3ac80414dfU,
  0x2246e0f9e9f6e09eU, 0x100beae5f4f5a2d0U, 0xdffff90c00291cd2U, 0xcb452112cce2341eU,
  0x1816d21516fdda18U, 0x2b27f8110f2463e2U, 0x1fe1e11405d2eb0bU, 0xf6cf30e73c1ae50fU,
  0x30b081632e314f7U, 0x50ecc1dfd5fd20cU, 0x48eef70a22f616b2U, 0x29eed121f5b50beeU,
  0xbf4310ceb0dd84dU, 0xe114edbe681513e2U, 0xac2fbf468e4f9dfU, 0x23a942fecbf6e844U,
  0xf40b17f103f310bfU, 0xf6edcb17d90ff429U, 0xdde7f7d815fcf3e8U, 0xf13ff0571f611ee8U,
  0xd1f203fcf5dffa16U, 0x13f4da0be400bf38U, 0x2a1b27daef08fdf3U, 0x2e43fdf620010aedU,
  0x18e4ebf0fbf3e52dU, 0xf103fdf4c9eee2d8U, 0xd7fafc302705271eU, 0xdb25d10a0ae9c7f6U,
  0xeee202d526fcf60fU, 0xdf150b29edf1d581U, 0xeef063210fd02caU, 0x2bd00cfb2deadde1U,
  0xcff8ce1217e50c14U, 0xf804e01921df0a32U, 0x21cef1edf9adbfecU, 0x1ea0dcee20c043cU,
  0xf5bf0ced04f8f6daU, 0x2300de0fd0f8f543U, 0xc3932f710fabe17U, 0xd12f3fde439e3e1U,
  0xf81100c708ddddf8U, 0x13e9d1e7f117eddbU, 0xddfd0b23fe1b08e9U, 0x20edcfb0b1f401cU,
  0xa616ffd6ae350ef8U, 0x7c404061e4909abU, 0xe158cb09f4fcfba9U, 0x190a0b3107e8cbc3U,
  0x34c40cfd1301102fU, 0xef04b715000de2e5U, 0xdbe7f214d529f6d6U, 0xf3d90e2003e8d7faU,
  0x200ac6ecd1d6bfb5U, 0xebf9182d0507fd31U, 0xd1a23306010039e0U, 0x2e39363824030ef4U,
  0x29e7190be6f3f419U, 0x26da0e13f7d7031aU, 0x28d80725f6ebce1eU, 0x25c72de13760bb23U,
  0x7ffcef23e2419c17U, 0x24fa0bc425fd0d3dU, 0x2d0109f22b2aabc3U, 0xda123606eade0cd6U,
  0xcce30dfdfecef9f1U, 0x8e601faef249f20U, 0x1917241216d2d7dcU, 0x220ac1eb0adc391eU,
  0xbc08ffe7e219c1fcU, 0xcd9d180742ffe0d0U, 0x1810e112921bf7e0U, 0x4603d45600c933d0U,
  0xe60601eb02192fc8U, 0xcbfe3bfedebe2ee3U, 0x42bb125f40214c3U, 0x1f0dfc117070cf1U,
  0xcd64b2aff100aafU, 0xef0bfd00071d124eU, 0xd3c1a001f00caeaU, 0xad9ccfbeef92ea6U,
  0x52e91e18b7e40cddU, 0x15c3222012ffea06U, 0xd9b527fb0534f909U, 0xcf3ccd1401c3dbdaU,
  0xdb02e045bae3def2U, 0x73c31b191afecb0aU, 0x4ce016faf902c5f0U, 0xb1c28df36f83145U,
  0xf9531f1810d10bf6U, 0x1fe7f3ef1b05d2edU, 0x150b1b0422ee1000U, 0xe8362633062fd8e1U,
  0xdb1428d6e0ce2e0dU, 0xf3e3335bdf1d35d1U, 0xf437f0f904141026U, 0x41fff4db0f3f36d6U,
  0xf2101edefef4fefeU, 0x5fcd7edc1f6d8fbU, 0x3225f5e3fa1b41f8U, 0xe8d7d3e71ba83f64U,
  0x11f51e2fe1edbbfdU, 0x7093911fa06f9dbU, 0xdd4edfeddcdb1103U, 0x81f03ee1c32f1fcU,
  0x21b9e3f4f621a71aU, 0x8fd1aba254324e8U, 0x269e15e21318d11aU, 0x24cf0d02f121febbU,
  0xf5f110513b1af90fU, 0xe6aa29ee1acde106U, 0x8fbf53619a4d6dbU, 0xe2073c0afadcf308U,
  0x1ed639e32cf7e916U, 0x38e3250de1062af6U, 0xfe3845ca1ffc1309U, 0xeaf6042dde05c70eU,
  0x1102121dec163a0eU, 0xda150a080132ed06U, 0xbdede191304e013U, 0x20d5ecca55f2f5faU,
  0x6cee9da5425f515U, 0xbe0106efe525151eU, 0x363802e235f5e515U, 0xf6011a3336c5ef46U,
  0x2714102413e601eaU, 0xe6e1f237fc0715d0U, 0x43fc1ec11eddd12cU, 0xfc020d40f32d2700U,
  0xcffa2cfff603f3c4U, 0xd410e906112a0503U, 0xe3de0aebe9091b26U, 0x27da08de12e9e809U,
  0xe11313cd24e707ebU, 0x2609ef13f31e1600U, 0xe4efe22f1e06fe25U, 0xce2103fb25d62be6U,
  0x2410e9102857411eU, 0xf142f7eefed2fcfbU, 0x1419fedfdd060dfbU, 0x12ec35ecea272806U,
  0x71809fcd1b6f314U, 0x1905c10116e3cfecU, 0x22b2c1000ee04e9U, 0xe8d429152b00d3d3U,
  0x47fbe0eb03171e2aU, 0xf719f3160c2a3022U, 0x2517fa0509afeef8U, 0x14df22ca000629e2U,
  0xfc15dae5edf401fbU, 0xd001404c705cff2U, 0x134100bd0d0af409U, 0x22e1f0fe35d8fe0eU,
  0x3604bc10edf50d0fU, 0xe4b2e303f83601fcU, 0x202ad613f9f02481U, 0x37d523daf10eef0dU,
  0xe93c030e460c04c2U, 0xb94ce0edfc1ed02fU, 0x1e0a3622e817fd5cU, 0xd7fe17eff4e2ee00U,
  0xdd49ddd8ef12070bU, 0xf51f3be3db24e66aU, 0xe51717f7eff41a07U, 0xe4f5db091d15fc19U,
  0x2c1438e8ee0704e3U, 0xdfdded083823fd2bU, 0xcdfb0efe24d81df4U, 0xfff1100df701e414U,
  0x6129f8f7fec6f921U, 0xef2c280ce9f9be12U, 0xf33f0ee503df28ecU, 0x14f1d3fa2a0ae40cU,
  0xebf0f2e4ff2af6beU, 0xe4111b3c14a821e5U, 0x2717eff620f9fdffU, 0xfbfa0d0fe1f0dbb8U,
  0x30de9ceebfd0305U, 0x1baffaf93737f3e1U, 0xb4f705fdb3dbfbf4U, 0xc8012ef0261effdfU,
  0x3cebfa15c8e8e504U, 0x2505f83b18282d1bU, 0x1017c40df0aeedeaU, 0x33db3afa1bf22202U,
  0xdb11ed23d01a492eU, 0xce0bfb0b0627dde4U, 0xfe282b672ce419b9U, 0xd3f80c080e2c1df0U,
  0x2aac1a072ff3ce2cU, 0x105ed28dde91d0cU, 0x2af709d82ad92406U, 0xec0d07d83cebf461U,
  0x6061ab9ee490ed9U, 0xfcfa2b16fcfe12d3U, 0x3ce4ee1b1023e7d8U, 0x33091114fb29e7dfU,
  0x8e702c5b307f903U, 0x2d22fe02ecf30beeU, 0xfcea1e33df2c0845U, 0xe0a1f37f2fa01e7U,
  0xe0e82cea37271df8U, 0x1512161909440211U, 0xf5dee2042ee2f1e9U, 0x10221edcef0f0b28U,
  0x15c3feacf7bd0411U, 0xde20090b4708f402U, 0x4db3618e724212aU, 0x41ee280608f91b09U,
  0xf11a15faef0e0a0cU, 0x222f4361627103aU, 0x13e5fe02ffd31aebU, 0xca0df8fd0266d92cU,
  0x190af8fa1e0df4ecU, 0xa71000facbad0733U, 0xcfc80cd9dd1bd814U, 0x28bced11d4f705f4U,
  0x99d8e11a3d181325U, 0xeb7ff6055db11753U, 0xe9e1ef2429fb1019U, 0x57aa2dd4fd26e6f8U,
  0xf6fac32ab7ff0a00U, 0x20a40de3363415eeU, 0xfe020d4003fe56f8U, 0x18ecf2306133fae5U,
  0x3ff2c252217ef10U, 0xf0f400f3eaffce0bU, 0xfe9e7f1f8edee06U, 0x4ffcfcf7c3fad5caU,
  0xf7c81117d4ce4cf7U, 0xf017f2fbfee5cf0dU, 0xb5c7f4e95f05b335U, 0xef3def111827f5e2U,
  0xce1add0e0be30819U, 0xce5dffd3043e050U, 0x11dbdb3bf016fbb8U, 0x7f4eb0122b60513U,
  0xe426c1be1624021eU, 0x5604c2f3d2fbe8f8U, 0xffd00c0b4a1930cdU, 0xece12223d23e21ccU,
  0x2ceaad14ebf22841U, 0xe0f50004f932d554U, 0xef4afab6e92104f1U, 0xa3bbf14fdba9531U,
  0xf430cef0e0bb4e09U, 0xd4bdf8e0f51d1a2bU, 0x8623ebe0a0419cfU, 0xef08f4f1faf6f027U,
  0x5a16670f47361e1aU, 0x1f1e10edc90cf8f9U, 0xcc1113d123192500U, 0xe539bae5c70900c0U,
  0xe01acd23180ce0ccU, 0x62ec932e0063604U, 0x30cf09ed0759cf10U, 0xf708f5f60b260033U,
  0x2baa4ff41eb81e50U, 0x330d2d0ad8dee82aU, 0x17ace700f538faf3U, 0xf0e50e180be8de49U,
  0xf7fb500d3ae00d37U, 0xc322d5f1e3010ec2U, 0xe5e8eeecdac309abU, 0x8d25e210f5002dfdU,
  0x16c40446d559f61bU, 0xf43106b2c1cbf420U, 0xe4e50a14fe162d00U, 0xab47f5ff432bfaf6U,
  0xbdeb7f4422e6e311U, 0xcdfe5ad7f61fe3d9U, 0x26fb31202a0b10U, 0x3b14d02cdcfd1746U,
  0x241106f90806f30bU, 0xd3cff0040c681b3eU, 0xe652d443ecef1515U, 0xf1dee3eef4b1613U,
  0xed0a21d6dd31092eU, 0x4de0c0fe71853bcU, 0x3d24e1d7ccdf3221U, 0xdc1e0b562ce424faU,
  0x8ecdbfe838fa1015U, 0xb4d0ed00fde301e3U, 0xcac4ce230c26b810U, 0xad12361f2dd806dfU,
  0x20e84a1cadfe33e4U, 0x2029dde455fbe833U, 0x1400dcf8d9f121faU, 0xcbbfd09dbe6fb45U,
  0x2deb47d63a17f664U, 0xe6f2f64e45c99ce8U, 0x10b0ec218ac0ad9U, 0xbd15e7e4e92915e6U,
  0xed12dbe31def4326U, 0xb4edf0ded0e1d3cU, 0xb6e4fe621c1aded1U, 0x20034fb703102feU,
  0xfdcc57ff1c1cc604U, 0x2afcc4a402d5c7a7U, 0x702f6f2dffd1494U, 0x2816fd0d1f0455e3U,
  0xd5f5c8d9d4db14daU, 0x38d80720162d0c0aU, 0xceb1509e0230534U, 0xf60b0cf6e00607faU,
  0x1d2ada1d0218d9efU, 0x26b104ded00a30f7U, 0xfd0ff7fa0cf64b04U, 0xfbf1240e02f21ee1U,
  0x3ff0def08d4e911U, 0xd70be412ff12fe1cU, 0xef2111f2e8e5d8f7U, 0x132121ef04f516faU,
  0xbfe04dd01efaf6d3U, 0x19b6f9e513fe1f01U, 0x201210d903d5c10eU, 0x1a17dfe7f3e0f4ebU,
  0xf31f192ade11beffU, 0xf9e00f032cf4d007U, 0x2a011fc4eb1ebfceU, 0xce271af1d705812cU,
  0xd31927f937f32dccU, 0x3001fb5113f306f4U, 0x2af9001511f407e9U, 0xe0130701f82df3dcU,
  0x3d9f802eafce9bdU, 0xe8f319fbae1ce6e8U, 0x27191103c0e742f6U, 0xf1be303ddb91cf7U,
  0xc505c816434b0ee0U, 0xf0e638e4e534e913U, 0x19ef090b0b09b939U, 0x11c00eca39fb080fU,
  0x37249c192eeffcbbU, 0x2eef2cbece9de1bU, 0x32d103dd0402e3f9U, 0xb10a1ef7fff9261dU,
  0xf12335ca15e51ef6U, 0x15e513e63cead010U, 0x10fcef12f01ce9ffU, 0xd5dee04dd6181830U,
  0xed04f217d31df850U, 0xd90b08f8c6de0ae7U, 0xd01cdc0af20af528U, 0xf7d523d8cdfbc51bU,
  0xf51001fae1f7181aU, 0x2c18e6e7231f0f37U, 0x7ea0b2ef00825d6U, 0xcee9b7f6f020bbb3U,
  0xf81522d4d11bf324U, 0x1510061f2126e1deU, 0xeee515090624160dU, 0x3e6df0eda02f613U,
  0xd8fadad3cb01a90fU, 0xd1f7effd30de21e1U, 0x3f8040b11fb2e1bU, 0xfee42e1c06fac5e1U,
  0xf0f4061704fe0cefU, 0xb0e20df418201205U, 0x406e6d3efd2f70aU, 0xe8002ce42f06ee10U,
  0xc2ddeecf20000f8U, 0xfe0f0b062b19e81fU, 0x1404f6f62bdefd38U, 0x1aed1cfdf80519e7U,
  0x40d2bc3506d0ef0dU, 0xb228ed0ded4836e6U, 0x717d322decb171eU, 0xaef120310fe12dcU,
  0x23aff3e6d3cd1adbU, 0xd503fec0efccf0eU, 0x2881dfeddb060df8U, 0x2717f61524c42d52U,
  0xef290bec0f20e329U, 0x2a26c2f0fe010a08U, 0xfd461f06bf1b1114U, 0xdaecd4470a1b070bU,
  0x25c915ddef1cc9e6U, 0xe4215fe04db3912U, 0xe233e13dd3c72e15U, 0x20400f1a001afaf9U,
  0xbe241ef01c3257faU, 0xd9281e1718d11220U, 0xc8d605ace9e147b7U, 0x16f3012cba0204e0U,
  0x208bd5f505d10722U, 0x3f13f7643712dbeaU, 0x80c05d0d5ede1b8U, 0x18fff20af10304U,
  0x2e2dde32e026ed01U, 0x7af04f61a28f3ffU, 0x72402e70e0c2af6U, 0x25d5e41bf3092404U,
  0xebdc232cd1333204U, 0xfaf4dc100ee5023dU, 0x2411c9d108212604U, 0xfc36e0e83523dfd6U,
  0xf633e311ffe627feU, 0x82d101a20f02d0bU, 0xd00b001a02111431U, 0xaa44dae50d1113f4U,
  0x261607fddc29f930U, 0xa414f70045dd0843U, 0xf7cde8220f04ecd6U, 0x3b3210090f16c011U,
  0xfd0703f8eed70addU, 0x23dc020fbbde602aU, 0xe2c2af5f1001a1eU, 0xc2c0235283bca3aU,
  0xba1afeedf4e909c5U, 0xf51732dd23d5d74bU, 0x1223202f01fe2c05U, 0xf7f1c82df94ec8d0U,
  0xfdb305da59b6fcffU, 0xdce60ad2e60ff4fbU, 0xf91116e60ef1d12cU, 0xf734c3e00bfc01e2U,
  0x4042728ffa81a1bU, 0xe5bbda1b1820cfe6U, 0x161ee2f706e6eb08U, 0x813d70d482332f5U,
  0x1f9011118f9d645U, 0x41308e52dfd13d2U, 0xeae24211e8201dfaU, 0x1dc8a9cf5e12ec0fU,
  0xde4e1624fccf2a2bU, 0xf9d7e71302dc0509U, 0x22dbf71864fffeU, 0xf2fb08fe0cd1f5f1U,
  0xbe3efd31bd60a13U, 0xfae91719d40dc1e9U, 0xfaca000857f6d211U, 0x3dfdda03081e1140U,
  0xf61bb6baecdfcc0aU, 0xfbddef0c31ed2f15U, 0x1b7f4bd3bf52ac7U, 0xefd27f22ef08fb3aU,
  0x17cb17f1434fcf03U, 0xf4cbfcb7e01ce403U, 0xe307340ed7c4fb8eU, 0xd72c16afc5db05c8U,
  0xe5f9f60b25e8dbe7U, 0xcb12e436e5c722f0U, 0x916c7edff05d5e1U, 0xb1fd1a25ea350a18U,
  0xeaf8f6f4d0f1eb51U, 0xfbeb0606def0ef1cU, 0x98f1ece624d32f1dU, 0xfb5e1fd352fd172cU,
  0x1f0d300208d70f4dU, 0xcff6180d0c0bd31fU, 0xf6e8182b19f7fdf4U, 0x1313af2010909f0U,
  0xdf03ed29eb20c608U, 0x5b022da5dbedf800U, 0xfc082f7229debe1bU, 0xcce8e319e7f14c3bU,
  0x2f34c5f3e9dd00ebU, 0x18292a1ffe002411U, 0xbdde7f817ff37e5U, 0xbc243ba113f9af3aU,
  0xecf2a80adf260d52U, 0xe6e1de1bff11300fU, 0x80b2bf343d611ffU, 0x11d90f1f38b40513U,
  0xf01126ed002513bbU, 0x2019ae159beb2ef5U, 0xc7082fefb01d26U, 0xbeefb4fc403f9d0U,
  0x182cfc23f92711e5U, 0xb9070b1a0206b4d6U, 0x1e173dbbf31dd123U, 0xe1d107f733280acfU,
  0x3d18e4070a08f4eeU, 0x21502eb0bc5c7e9U, 0xd1e2ec11e806fdeeU, 0x1bf43df8b9df42d7U,
  0x1bfac2101deefdf8U, 0xe4041f00e14be3c7U, 0x20223dc4f8020bf1U, 0xdf4edefed33001e3U,
  0x1707151ceb15e90fU, 0x1df51ba1d4213e14U, 0xe9ad11de54e0011fU, 0x2e180603ea0859e7U,
  0x2070af4eee815feU, 0x49041006acb9def5U, 0x9efccd93925c2f9U, 0xfbf91bd81c4bf5fbU,
  0xef23f218dddadda9U, 0xdbd22b1bf23628e9U, 0xadfde31f925023eU, 0xe5f4230e11d02615U,
  0xeedf4cdbd7e3f20fU, 0x9c2c091909edd901U, 0x9e221009e5c5d8daU, 0x37fbe617e4f4f3faU,
  0xf31718e81905d0dfU, 0xe0ead0ead6f5ff05U, 0xee0b1200ebe1e50dU, 0x330d150b0eb04c5aU,
  0xd7fdd4facecb620eU, 0xfbce4ec00e50b0aU, 0xe0cb24d8eb04dfd4U, 0x151df41539e3e4e6U,
  0xd61ff72822bb1409U, 0xf9fbfedfeb1c0c32U, 0xb237f0b50becebe1U, 0x25e94431b9ceb61cU,
  0xc3ec0de80b39e90aU, 0x2e050319d315d12cU, 0x130c2c06eebd205fU, 0xcbe4de2ef5fae11cU,
  0xeec8c9d206dc3fffU, 0x1c3e0cfe21e232dfU, 0x17d80fc31e1cfceaU, 0xfde9ee0711410ce2U,
  0xf6130cc810011213U, 0x31f3cf2b940d43c2U, 0xd820f7ea4bdb340fU, 0x14f436ebf505da0eU,
  0xe4fbe10257dcf2U, 0x95d08d6bfa80cd3U, 0x17e81cf014ebfc02U, 0xc736d3e835e7c9ebU,
  0xf3d322f81ae718f4U, 0xf8f60d4450441bb9U, 0xd1ffb9effe080a33U, 0xfadc130e2f0dccf9U,
  0x35fb110b2c27e83bU, 0x4342d7f190a08d8U, 0xd0fd0e1de708f249U, 0xaf7d9eb26aeec2fU,
  0x6209c7b6f6d60a06U, 0xdfd3c26f1062928U, 0x1225edfb2fed0c09U, 0xf2061c0ada082cf2U,
  0xf43ebc003923ff4dU, 0xed17f41be82a9a0dU, 0xd8a9cf1e16084216U, 0xece815e4f4071f46U,
  0xb12cdee2c15fb23U, 0x84da15ee27fe02e3U, 0x40c0ef720392f1cU, 0xded7e81b12d135d4U,
  0xe7d709d0550e0a59U, 0xda2718c402c42109U, 0xfa3ee412c70008eaU, 0xf4f7d6f003ed0ee8U,
  0xddbff3e4fafea20eU, 0x591208230029e20cU, 0x15e9414331cadc0dU, 0x100e12a4f75c0a18U,
  0xdf433a2b35e528fcU, 0xfb00f4e0e7e717e3U, 0xf610302a28d4f4b3U, 0xe4ef082e072442e2U,
  0xbad0c2ef0fdc00d6U, 0x1d16c9e42c0000deU, 0xc20b1ff44b190731U, 0xbaed08f613eeee2cU,
  0xf25c6012289f230aU, 0x2ce7c5c7e50ff3f0U, 0xff1fe8ebef1dc5baU, 0xfae01921ac06f71dU,
  0xf817cfd5b20fe3d2U, 0xe6c920f0d9fae1e0U, 0xeb129f4beb9708c7U, 0xae3161ae9f0f51aU,
  0xdd1d200d2ddc16e8U, 0xe51a1a221309192eU, 0x20182d276a0306f3U, 0xbb63281a1b44f727U,
  0xc103daeee822e213U, 0xe4addede0be702f3U, 0xea2d33d41d1030d1U, 0x4621131ffafdf45bU,
  0x2135d82cd6edd50eU, 0x2c6a4e192cfa223eU, 0xe6edf83c0ab1effbU, 0x814f407c247eb4eU,
  0xd1c6fa1418d50ce6U, 0x4410f10e3f09c9e3U, 0xf4c20a170cab24cbU, 0xef07082b1d0fb640U,
  0xfe3be3e87f2b0401U, 0x462d42f7043816d7U, 0x371cc60507e82e11U, 0xc8c0f508c2c10ccbU,
  0xe9eafef608ec1ef8U, 0xb1c00b3d0cfeed02U, 0xd3b10932352c3d23U, 0xf81119fbc6ea434bU,
  0x4215d008e1ba1ab1U, 0xdd21124748e233cfU, 0x2fcb15fce1e115e0U, 0x83ff6dbf09b54e6U,
  0x2f3260115cffbe1U, 0x34fff22407061102U, 0x9daeef2f930ef0dU, 0x42f7141d1e0d1fd2U,
  0x21d412e1f2dbceeeU, 0x101e3f3c5eeeffddU, 0x8e1bbf011f4e0d6U, 0xe0012d1bfb43cadeU,
  0xc4073020d4ba15fcU, 0xd5091e225ff1eed2U, 0xddfdef0802323012U, 0x4748edcce7fcdbe7U,
  0xdf01e723e000e8d2U, 0xe22b23a824c417d5U, 0xf9b2c11f1b86250dU, 0x1a49ec11591fe63aU,
  0xd35e53fd33be07f0U, 0xc92bdfbdd5d9ddc1U, 0x1c2a08cbd4f5fa1bU, 0xfb25c100fd0852e8U,
  0x35c8304a1b143113U, 0xe2ea3bff0658d030U, 0x18dcf82732c11f25U, 0x31c110f01690fe0U,
  0xfffb2fe31ffbe60eU, 0x10eb1eee11b0fe26U, 0xd006e3f51b1530e1U, 0xe82df9140d011004U,
  0xf5afcedb283e362cU, 0xf913e1202de31fceU, 0xc7d0080123eb40efU, 0x222bcb36d6e5f6f1U,
  0xda0b4b0709cedafeU, 0xf8e4fde218fa1008U, 0xc02206dabd20ec0cU, 0xc1df9f3ea0aff02U,
  0xd69ba2d108c622c2U, 0xedff1ca023b228e2U, 0x1947e006e001ea19U, 0x18d50601f7e26deaU,
  0xe90b1e25360a09f1U, 0xf91ddc54180ff822U, 0xe7f537b8521cd2f1U, 0x2ce82ae60ffded01U,
  0xfa332d113a5401faU, 0xd8f311c7200bf53eU, 0x4151efa0919f62eU, 0xd23312000d0ddd9aU,
  0xd6eee635cbfd42d3U, 0xe30602d6d0f863dfU, 0xfd07d9df2319d6cdU, 0xf4d7ea2dbed20d06U,
  0x25edd2f2f0cef6e9U, 0xcc1ed51bdcd2f9dcU, 0x931dfef5bbfde2f3U, 0xcad32e094d223569U,
  0xd6fd06ca9cc63329U, 0x35c4e635e6fa25e1U, 0xf014ffbc66f1eee0U, 0x48fb190d2ef70533U,
  0xfaf3c82700de09fbU, 0xbceb1b2d1af63b1eU, 0xf203df21d1a18e6U, 0x21ecd711d71306ecU,
  0xed3d22d00e11d613U, 0xe81202099edef6d6U, 0xb7170c0da3fefa40U, 0x17032cc000ce0b04U,
  0xf734ffeb31eaae52U, 0x1c17812108c90043U, 0xfdcddaf22f1518e8U, 0x22ed02ec3fe0abf6U,
  0x21f3c12c340c4ca6U, 0x35e9f318eee8284cU, 0x111be4cb254be03aU, 0xc8152321c0fe06ddU,
  0xbc20fa371fec22eaU, 0xdcdc2eded4fcf0d0U, 0xe0e620f829181dccU, 0xd3ff1a20e3e5fbe7U,
  0xb20715dbeb543912U, 0xedfa00eafaf1c527U, 0x5f5c1aebe00aab10U, 0xde201404bed7d8e9U,
  0x143325ff11fd4be1U, 0xcdc07f90c22f8e4U, 0xaf610dfd91636e9U, 0xec1ed4f8070ee8ebU,
  0xec0a3d00b6d50429U, 0xf8e1e0fb2e010112U, 0xdefcfade0114e72aU, 0xf5f412f341f80138U,
  0xf0fed703fe27f828U, 0x2216bd0c27d6eefcU, 0x4abaddcc1ae82af4U, 0xe22302e2f41a1cd8U,
  0xeed8021200243208U, 0x4efb13e508a01dd2U, 0x33f53a25d554e606U, 0x233f9f4e2fb21ebU,
  0xf83a65f435d11fe3U, 0xda15f7dd203302edU, 0xf9e9dbdae1fc1027U, 0xa5339051ae7f809U,
  0x2fe303f31bd031ebU, 0xdd1c310210e927deU, 0x8ee071eef2d2c0fU, 0x25230e05c5132205U,
  0xf6d50fe4f242e4abU, 0xfe27f4a81c1fcaeeU, 0xe01ccbdfd4eb15faU, 0xfddfeffcdf101f0bU,
  0xe2c913d4f1280808U, 0x4347e140b61ed3e9U, 0x30012810e7fdb930U, 0xd80abd0e293d292fU,
  0xda05ed1adb0ef8ecU, 0x4c5f00f0811eb18U, 0xea0a120ff61fec2fU, 0x170ab116ec20f73fU,
  0x1b0617e9f1effc0bU, 0x3e3cc08f6fa1de2U, 0x4c0ef5f0c5e7f031U, 0x170c0509a82ce63eU,
  0xb20dd3fad5010adaU, 0x3c1808c846bbb8f4U, 0xde2446ce2a250fd8U, 0xfedb34f5dadc0612U,
  0xf41e02c080bdb1dU, 0x5f202f6ca19d218U, 0xf11bf9ef2a28e506U, 0xf524195006b105d9U,
  0xf2d9e609df0ae5acU, 0x163f3bd2f5319fe6U, 0xced7d4003812e016U, 0x31dfbf842000ae2U,
  0xf003340140d7b219U, 0xebd2c12a06193a3aU, 0x1be31edff6240505U, 0xf1c012fd0e03c8f1U,
  0xe5e2f29dcd1d223bU, 0xc61cf8ac07ff0fc5U, 0xfed0ee110cd92ce1U, 0xe8ed411232d5fa29U,
  0xf40814f825e605dbU, 0xa7e8de0a3ddb12dfU, 0x70bd7c7aced1e1eU, 0xeb2904dd5f0ce9faU,
  0x4abf36ade0f107b4U, 0x2ee31dec1e2ac0f4U, 0xc9d47fe1f830ed16U, 0x150651cbd004163aU,
  0xcdfb0410f8ee188aU, 0xf5093aebfae5c7f1U, 0xb60ebde80fe9ee58U, 0xc92cbd221d2c0371U,
  0x11f632d0580f2f40U, 0xb3020adcd3bdeefU, 0x40da05c64809147bU, 0x54f9d3f209060d0fU,
  0xf5ed210b1a2f06dbU, 0xd7c300040bcbedecU, 0x48423fefccb3f107U, 0xf4c82a2bdce411f6U,
  0xaba382433b6cf2aU, 0x2bebf4f4050710fcU, 0x920341d0a3fdd2eU, 0xe8ecdcd629d10d11U,
  0x19fd69f1f4f80121U, 0x36f92504daf4ea32U, 0xf7d5feffbde7bfe6U, 0xe1400f06a51f7e12U,
  0xddefee02baf2653eU, 0x2ed4fe1fd0d9faf4U, 0xf01c0dfd2b0ef83cU, 0x51ee0eb0335ea0aU,
  0x2eeef7be090a09f9U, 0xc1dfd6dbea3ef922U, 0x18fa1bf0d3e7e5dbU, 0xff36f3fc234e9b26U,
  0x65ff2dff01ddc01U, 0x24e02de81d588abeU, 0xd91911fee91045ecU, 0xfdf1f6f8faef180dU,
  0x11e5b2cd4bf80320U, 0x3d01300bc9e63805U, 0xe6f9c3cd1bf9e7c2U, 0x8c264438ed0f1521U,
  0x5d1516fb18e20b0bU, 0x3e000cf336f5fc0fU, 0x8f416f403caf617U, 0xd927b9f80a050746U,
  0xcfdde19141106e5U, 0xe9db01e9e21a1a21U, 0xeb0fddeecd3eecdU, 0xf2da3ee412d11bf7U,
  0x826c904fb1803c7U, 0x114428f29038a212U, 0xcf61bdbe6e2c615U, 0x27dde6e2a4d6c4e6U,
  0xf3360eea0f2dd418U, 0xf802072113f7b80eU, 0xf1e220b5e9f6fd1fU, 0xf52a1ef1db65e339U,
  0xfd235517ea19eb3dU, 0xaf535d41c1b180cU, 0xf5e915f3f0f806eeU, 0x1aebfafdf033f71cU,
  0x260c49410210e823U, 0xf7d818fc253c440bU, 0x5e0d313040307f3U, 0xecdfa904edfef804U,
  0x2f3171128faa90aU, 0x93223d837e10130U, 0xcc1c1acf189b1844U, 0x40e87fe514c8f636U,
  0x4051d21e2d7f2d9U, 0x1d3700d5e3ab10e3U, 0x151dffe8fb39f40fU, 0x16fae04b0729fd03U,
  0x351a930315c598e3U, 0x91e38020e1bb6f9U, 0x14f0c606dd3629d7U, 0xdf2208b61dfc010fU,
  0xcb62405ff3301baU, 0x83c8eaebee83ce3dU, 0x9d51f0de2e2f904U, 0x2829f60bfa12071dU,
  0xecf4bf1bc63114fcU, 0x7caa08be2654ffc3U, 0xf819f8ddd4ffca37U, 0x2e4b04f617ef02beU,
  0x186fe7e9febaafd5U, 0x1aef09c62733d9faU, 0x5f0619f4e5f942e0U, 0xea46e6d43900eef1U,
  0xdcf9e11acf5bf119U, 0xc5f33e0213e7d9bfU, 0x10101efcf81bf6edU, 0x14191d1a6600f91dU,
  0x41db1c0d3c000ae2U, 0xdabde742fdf9be19U, 0x24fd37fd0f41b3b2U, 0x23deda16dcdfccfaU,
